<pad>	0
<unk>	0
<s>	0
</s>	0
<RAP>	0
<POP>	0
<ROCK>	0
<RB>	0
<COUNTRY>	0
<V>	0
▁v	-0
▁t	-1
▁i	-2
he	-3
▁a	-4
ou	-5
▁s	-6
▁w	-7
in	-8
▁m	-9
▁y	-10
▁b	-11
▁the	-12
▁you	-13
on	-14
re	-15
▁l	-16
▁c	-17
▁d	-18
▁f	-19
▁g	-20
nd	-21
ha	-22
ve	-23
ll	-24
ing	-25
▁n	-26
▁to	-27
ow	-28
an	-29
▁o	-30
▁and	-31
▁p	-32
ke	-33
it	-34
me	-35
or	-36
▁it	-37
▁me	-38
st	-39
hat	-40
▁be	-41
ay	-42
▁in	-43
ot	-44
er	-45
▁my	-46
ar	-47
▁h	-48
▁on	-49
se	-50
▁he	-51
ig	-52
▁th	-53
ee	-54
▁e	-55
▁li	-56
et	-57
▁r	-58
▁we	-59
le	-60
ck	-61
▁that	-62
is	-63
at	-64
▁of	-65
▁st	-66
▁so	-67
▁u	-68
▁k	-69
ver	-70
ld	-71
▁lo	-72
ht	-73
ut	-74
es	-75
▁your	-76
▁ha	-77
as	-78
ight	-79
▁j	-80
id	-81
▁for	-82
▁ba	-83
▁go	-84
out	-85
ed	-86
ea	-87
▁kn	-88
▁wit	-89
▁all	-90
▁is	-91
▁re	-92
▁don	-93
ro	-94
en	-95
▁with	-96
▁like	-97
▁can	-98
ust	-99
▁whe	-100
ill	-101
▁co	-102
ake	-103
ce	-104
▁know	-105
▁do	-106
▁but	-107
al	-108
ad	-109
ch	-110
▁up	-111
ir	-112
▁got	-113
▁love	-114
▁no	-115
▁sh	-116
▁this	-117
▁get	-118
▁just	-119
▁wh	-120
▁what	-121
all	-122
od	-123
▁wan	-124
▁tr	-125
▁when	-126
▁ne	-127
▁ho	-128
own	-129
one	-130
na	-131
un	-132
ime	-133
ly	-134
au	-135
ould	-136
▁they	-137
ur	-138
▁see	-139
ind	-140
▁out	-141
▁ever	-142
▁now	-143
▁she	-144
▁some	-145
▁not	-146
art	-147
▁mo	-148
ie	-149
ain	-150
ic	-151
▁if	-152
▁an	-153
her	-154
oug	-155
am	-156
▁was	-157
▁time	-158
▁oh	-159
▁as	-160
ion	-161
nt	-162
▁yea	-163
ong	-164
▁down	-165
▁fee	-166
▁wor	-167
by	-168
ame	-169
ause	-170
▁bl	-171
▁let	-172
▁al	-173
th	-174
ra	-175
▁yeah	-176
ound	-177
▁one	-178
rom	-179
▁every	-180
▁"	-181
fe	-182
▁te	-183
ok	-184
pp	-185
▁'	-186
▁want	-187
▁feel	-188
way	-189
ive	-190
▁never	-191
▁baby	-192
▁at	-193
uck	-194
▁there	-195
▁say	-196
ide	-197
▁make	-198
▁ro	-199
▁from	-200
▁ain	-201
ter	-202
▁back	-203
▁come	-204
▁pl	-205
igg	-206
ough	-207
ink	-208
eed	-209
▁are	-210
ast	-211
▁sp	-212
us	-213
il	-214
▁sa	-215
▁have	-216
ine	-217
▁take	-218
ep	-219
▁man	-220
▁way	-221
han	-222
▁who	-223
▁her	-224
irl	-225
▁will	-226
op	-227
▁nigg	-228
ge	-229
ct	-230
our	-231
▁girl	-232
im	-233
oo	-234
▁how	-235
um	-236
▁ch	-237
▁need	-238
▁ke	-239
ss	-240
▁cl	-241
▁wanna	-242
▁gon	-243
▁ab	-244
and	-245
▁im	-246
▁tell	-247
ore	-248
▁day	-249
ri	-250
▁right	-251
▁thr	-252
ak	-253
▁de	-254
▁could	-255
▁life	-256
ody	-257
▁look	-258
▁think	-259
▁been	-260
▁here	-261
thing	-262
ick	-263
ry	-264
▁ar	-265
▁bo	-266
▁br	-267
itt	-268
alk	-269
▁or	-270
▁se	-271
▁keep	-272
▁fuck	-273
▁heart	-274
▁where	-275
▁try	-276
▁sl	-277
urn	-278
▁good	-279
▁fl	-280
▁night	-281
▁su	-282
ace	-283
pe	-284
▁won	-285
▁thing	-286
ue	-287
cause	-288
ers	-289
▁by	-290
ta	-291
▁more	-292
▁about	-293
▁cause	-294
▁le	-295
▁gonna	-296
▁give	-297
sed	-298
ile	-299
▁then	-300
ate	-301
▁sw	-302
ven	-303
other	-304
▁too	-305
▁lea	-306
ack	-307
▁bit	-308
ess	-309
▁them	-310
▁away	-311
ving	-312
▁through	-313
▁bet	-314
are	-315
om	-316
▁still	-317
▁ag	-318
▁com	-319
▁shit	-320
▁why	-321
▁our	-322
▁call	-323
▁bre	-324
▁would	-325
▁off	-326
lf	-327
▁dr	-328
▁fr	-329
ars	-330
ally	-331
▁over	-332
▁only	-333
ip	-334
body	-335
▁us	-336
ap	-337
ream	-338
▁ya	-339
hing	-340
▁wa	-341
▁said	-342
▁sha	-343
▁world	-344
▁did	-345
▁gr	-346
▁ey	-347
ist	-348
▁had	-349
▁than	-350
▁mind	-351
▁run	-352
▁am	-353
▁sc	-354
ittle	-355
qu	-356
▁little	-357
▁con	-358
▁sm	-359
ft	-360
▁his	-361
▁nigga	-362
ies	-363
ose	-364
ble	-365
oh	-366
▁again	-367
▁long	-368
▁any	-369
▁play	-370
▁these	-371
▁around	-372
ard	-373
iss	-374
▁well	-375
ire	-376
ol	-377
nds	-378
ked	-379
▁home	-380
▁har	-381
ty	-382
be	-383
ure	-384
▁put	-385
eep	-386
ade	-387
ull	-388
ways	-389
▁niggas	-390
▁tw	-391
▁hold	-392
atch	-393
▁real	-394
to	-395
▁turn	-396
▁chan	-397
▁were	-398
ac	-399
oney	-400
ree	-401
ent	-402
▁gotta	-403
▁always	-404
nder	-405
▁light	-406
▁its	-407
▁fe	-408
▁eyes	-409
▁fall	-410
▁pre	-411
▁find	-412
ation	-413
ning	-414
ought	-415
▁even	-416
▁better	-417
ul	-418
▁hard	-419
▁talk	-420
ag	-421
▁head	-422
▁wr	-423
ds	-424
▁bel	-425
▁po	-426
▁stay	-427
▁boy	-428
▁live	-429
▁wait	-430
▁gu	-431
▁di	-432
▁show	-433
em	-434
▁dream	-435
igh	-436
▁new	-437
ite	-438
▁pro	-439
ng	-440
▁ex	-441
▁really	-442
▁mu	-443
▁sk	-444
side	-445
▁nothing	-446
ous	-447
ice	-448
▁leave	-449
ass	-450
▁la	-451
ang	-452
▁things	-453
ise	-454
ase	-455
ber	-456
▁him	-457
▁should	-458
self	-459
ity	-460
▁dont	-461
▁gone	-462
▁pr	-463
ting	-464
get	-465
▁pe	-466
ant	-467
▁en	-468
▁under	-469
▁cr	-470
che	-471
ath	-472
ish	-473
▁into	-474
▁money	-475
▁may	-476
▁che	-477
fore	-478
▁everything	-479
▁stop	-480
▁cha	-481
day	-482
▁bitch	-483
▁start	-484
▁old	-485
▁hear	-486
▁str	-487
▁something	-488
ood	-489
▁god	-490
▁cra	-491
▁walk	-492
▁going	-493
▁before	-494
▁frie	-495
▁much	-496
ild	-497
▁made	-498
ady	-499
▁hey	-500
▁high	-501
▁ye	-502
ff	-503
▁sun	-504
▁belie	-505
▁bu	-506
ma	-507
ah	-508
red	-509
▁qu	-510
▁hat	-511
ance	-512
▁break	-513
▁ton	-514
▁em	-515
▁stre	-516
▁un	-517
▁ple	-518
ach	-519
ark	-520
▁yo	-521
ord	-522
▁sing	-523
▁end	-524
ther	-525
▁hit	-526
les	-527
▁fa	-528
▁thought	-529
▁name	-530
▁peop	-531
vin	-532
▁roll	-533
▁face	-534
▁another	-535
ms	-536
▁left	-537
▁people	-538
▁feeling	-539
▁last	-540
▁gl	-541
▁af	-542
▁same	-543
▁ra	-544
▁gre	-545
▁bad	-546
▁dea	-547
▁believe	-548
ock	-549
▁hand	-550
▁alone	-551
der	-552
▁-	-553
▁tonight	-554
▁stand	-555
▁work	-556
aug	-557
orn	-558
▁kill	-559
less	-560
▁part	-561
▁two	-562
▁cou	-563
ug	-564
▁watch	-565
el	-566
▁song	-567
▁while	-568
▁ooh	-569
▁bro	-570
▁fo	-571
▁rock	-572
ze	-573
ool	-574
▁game	-575
ment	-576
▁happ	-577
▁other	-578
▁big	-579
▁care	-580
oul	-581
▁mean	-582
▁their	-583
▁pain	-584
▁done	-585
▁mine	-586
ts	-587
▁place	-588
▁cry	-589
▁might	-590
▁bring	-591
ker	-592
zy	-593
▁move	-594
▁wrong	-595
▁car	-596
wn	-597
▁miss	-598
▁soul	-599
▁free	-600
▁ass	-601
▁lost	-602
▁die	-603
▁inside	-604
if	-605
▁own	-606
ave	-607
▁beat	-608
aking	-609
▁please	-610
▁without	-611
▁hell	-612
▁black	-613
pt	-614
ash	-615
ome	-616
▁has	-617
ud	-618
irst	-619
▁best	-620
ps	-621
oke	-622
▁came	-623
▁burn	-624
hh	-625
▁side	-626
uc	-627
ipp	-628
▁gra	-629
▁sin	-630
time	-631
tin	-632
▁change	-633
ied	-634
pl	-635
▁told	-636
▁da	-637
age	-638
▁hur	-639
▁fire	-640
os	-641
▁mother	-642
▁hope	-643
▁ride	-644
▁fore	-645
ory	-646
▁because	-647
▁fun	-648
ne	-649
▁street	-650
▁fly	-651
te	-652
▁enough	-653
een	-654
▁sho	-655
mer	-656
▁myself	-657
▁first	-658
ump	-659
▁dis	-660
▁dam	-661
▁cold	-662
▁ver	-663
▁body	-664
▁swee	-665
sh	-666
▁bot	-667
▁true	-668
ew	-669
here	-670
▁fight	-671
ather	-672
▁list	-673
▁hands	-674
▁sleep	-675
mber	-676
▁looking	-677
▁war	-678
▁far	-679
▁those	-680
▁everybody	-681
▁1	-682
ater	-683
ub	-684
▁coming	-685
▁op	-686
▁maybe	-687
dy	-688
ict	-689
▁broke	-690
ches	-691
▁hel	-692
▁reme	-693
▁2	-694
▁days	-695
▁getting	-696
▁wind	-697
ness	-698
ans	-699
▁rain	-700
▁fre	-701
▁used	-702
ix	-703
▁didn	-704
▁ad	-705
▁na	-706
ling	-707
▁kind	-708
',	-709
▁young	-710
▁hea	-711
ci	-712
▁dro	-713
▁uh	-714
▁unt	-715
ond	-716
▁yes	-717
▁door	-718
▁cu	-719
▁sweet	-720
▁act	-721
per	-722
▁set	-723
▁hot	-724
▁listen	-725
▁mat	-726
ses	-727
▁nobody	-728
▁ask	-729
▁wish	-730
▁help	-731
▁dead	-732
▁crazy	-733
▁damn	-734
▁lord	-735
▁slow	-736
▁remember	-737
▁trying	-738
▁tou	-739
ions	-740
▁drink	-741
▁after	-742
▁sound	-743
▁des	-744
▁lot	-745
▁many	-746
▁dark	-747
▁jo	-748
▁friends	-749
llow	-750
▁kid	-751
▁flow	-752
▁blow	-753
▁ill	-754
xt	-755
aught	-756
▁spe	-757
▁does	-758
▁deep	-759
▁sky	-760
▁el	-761
ush	-762
▁must	-763
▁open	-764
▁pull	-765
▁someone	-766
▁whole	-767
▁close	-768
ort	-769
▁ri	-770
▁tre	-771
▁per	-772
▁town	-773
▁ph	-774
▁forever	-775
▁sure	-776
gether	-777
▁found	-778
▁knew	-779
▁cle	-780
▁count	-781
▁together	-782
▁times	-783
▁kiss	-784
▁words	-785
ama	-786
ouse	-787
▁seen	-788
▁blue	-789
▁dance	-790
▁hate	-791
▁ready	-792
▁flo	-793
ign	-794
ab	-795
ason	-796
▁sn	-797
▁road	-798
▁,	-799
▁wonder	-800
▁until	-801
▁mor	-802
▁stra	-803
▁though	-804
▁living	-805
▁mus	-806
▁waiting	-807
lt	-808
▁late	-809
▁comes	-810
▁touch	-811
▁mar	-812
▁took	-813
▁sur	-814
▁red	-815
▁lay	-816
▁beg	-817
hy	-818
▁guess	-819
▁forget	-820
uth	-821
▁dreams	-822
▁underst	-823
▁next	-824
▁girls	-825
uh	-826
arn	-827
▁heard	-828
▁once	-829
▁cre	-830
mor	-831
row	-832
▁cut	-833
▁line	-834
▁friend	-835
ple	-836
▁fool	-837
▁matter	-838
pped	-839
right	-840
▁fin	-841
▁blood	-842
▁sometime	-843
▁sec	-844
▁pass	-845
▁ta	-846
ny	-847
▁city	-848
▁fucking	-849
▁lose	-850
▁ac	-851
asy	-852
▁pray	-853
▁music	-854
▁smile	-855
outh	-856
▁low	-857
▁gun	-858
▁till	-859
▁understand	-860
▁throw	-861
▁top	-862
ated	-863
ings	-864
where	-865
▁goes	-866
ane	-867
nce	-868
▁since	-869
▁rap	-870
▁lie	-871
▁beh	-872
▁morning	-873
▁alright	-874
ffe	-875
▁star	-876
ove	-877
hes	-878
aut	-879
▁ah	-880
eak	-881
▁win	-882
▁lone	-883
▁house	-884
▁somebody	-885
▁sometimes	-886
▁strong	-887
▁truth	-888
▁swe	-889
tle	-890
▁shot	-891
▁full	-892
▁child	-893
▁running	-894
anc	-895
▁white	-896
▁makes	-897
▁rhy	-898
▁thinking	-899
oud	-900
▁else	-901
▁heaven	-902
▁pay	-903
▁cont	-904
▁tryna	-905
ever	-906
est	-907
ross	-908
▁behind	-909
▁gi	-910
▁youre	-911
mm	-912
ress	-913
rist	-914
hed	-915
▁fast	-916
▁bitches	-917
▁rec	-918
up	-919
▁fine	-920
iz	-921
▁yourself	-922
ction	-923
▁wom	-924
▁beaut	-925
▁went	-926
▁save	-927
▁rest	-928
ful	-929
orus	-930
▁party	-931
unk	-932
aste	-933
▁gold	-934
bout	-935
▁bed	-936
▁years	-937
mon	-938
▁doing	-939
ia	-940
▁check	-941
ouble	-942
▁res	-943
bo	-944
ank	-945
lin	-946
▁sit	-947
▁wall	-948
▁round	-949
▁grow	-950
ys	-951
la	-952
mma	-953
▁reason	-954
▁past	-955
▁cant	-956
▁pret	-957
▁room	-958
▁woman	-959
▁sor	-960
que	-961
vil	-962
▁min	-963
▁saw	-964
umb	-965
▁moon	-966
uss	-967
▁bout	-968
▁aw	-969
▁knows	-970
▁today	-971
ence	-972
▁catch	-973
▁rid	-974
▁motherf	-975
ffere	-976
▁hang	-977
▁straight	-978
▁gave	-979
▁differe	-980
▁anything	-981
led	-982
▁lonely	-983
▁tea	-984
▁chorus	-985
▁air	-986
gs	-987
▁thats	-988
▁learn	-989
▁step	-990
▁prom	-991
ying	-992
▁happen	-993
▁cuz	-994
▁dri	-995
▁ap	-996
▁water	-997
▁mad	-998
til	-999
ster	-1000
▁ma	-1001
▁ground	-1002
ones	-1003
▁hurt	-1004
▁cool	-1005
▁smoke	-1006
▁pretty	-1007
▁ball	-1008
▁making	-1009
ins	-1010
▁fam	-1011
▁death	-1012
ize	-1013
▁easy	-1014
▁dad	-1015
▁mon	-1016
▁being	-1017
ors	-1018
▁word	-1019
▁mama	-1020
▁son	-1021
ppin	-1022
▁z	-1023
▁tried	-1024
▁rem	-1025
▁feels	-1026
round	-1027
▁talking	-1028
▁couldn	-1029
▁wanted	-1030
▁drop	-1031
ily	-1032
▁vo	-1033
▁goin	-1034
▁gettin	-1035
int	-1036
▁lights	-1037
hin	-1038
▁broken	-1039
▁pa	-1040
▁aint	-1041
come	-1042
▁happy	-1043
▁eat	-1044
▁follow	-1045
▁soon	-1046
▁each	-1047
▁boo	-1048
▁land	-1049
io	-1050
▁bra	-1051
ged	-1052
ves	-1053
▁feet	-1054
▁fron	-1055
▁drive	-1056
▁ok	-1057
▁tears	-1058
▁fuckin	-1059
▁meet	-1060
▁brother	-1061
▁pop	-1062
ket	-1063
▁wake	-1064
ho	-1065
▁dir	-1066
▁wild	-1067
pect	-1068
▁three	-1069
▁speak	-1070
uff	-1071
ired	-1072
▁hop	-1073
▁sum	-1074
▁king	-1075
▁shine	-1076
▁pick	-1077
pping	-1078
▁fill	-1079
▁trust	-1080
▁pea	-1081
▁lies	-1082
▁kick	-1083
▁shake	-1084
▁floor	-1085
cked	-1086
▁bar	-1087
▁chance	-1088
▁scream	-1089
ls	-1090
▁met	-1091
▁sex	-1092
ks	-1093
▁fear	-1094
▁mid	-1095
bye	-1096
▁falling	-1097
▁dar	-1098
▁christ	-1099
▁sad	-1100
▁stars	-1101
ung	-1102
▁boys	-1103
▁along	-1104
ious	-1105
▁mess	-1106
ues	-1107
og	-1108
ats	-1109
▁alive	-1110
▁gets	-1111
iful	-1112
▁laug	-1113
▁different	-1114
▁use	-1115
▁app	-1116
▁verse	-1117
▁sick	-1118
▁comp	-1119
▁contro	-1120
ary	-1121
▁bir	-1122
▁tight	-1123
akin	-1124
▁seems	-1125
vers	-1126
▁ay	-1127
▁arms	-1128
ric	-1129
▁streets	-1130
▁plan	-1131
fect	-1132
ines	-1133
ph	-1134
▁most	-1135
▁hide	-1136
▁pow	-1137
▁mill	-1138
▁ange	-1139
▁babe	-1140
▁loving	-1141
sing	-1142
▁hoes	-1143
▁moment	-1144
▁nothin	-1145
ooh	-1146
▁bus	-1147
▁phone	-1148
▁beautiful	-1149
▁honey	-1150
▁forg	-1151
▁half	-1152
▁sea	-1153
ared	-1154
▁hair	-1155
ife	-1156
▁mic	-1157
orm	-1158
▁ru	-1159
▁stea	-1160
▁born	-1161
▁peace	-1162
ween	-1163
▁mist	-1164
▁rhyme	-1165
▁bull	-1166
▁dog	-1167
▁worth	-1168
▁pie	-1169
mb	-1170
▁pap	-1171
▁eye	-1172
▁sat	-1173
▁cur	-1174
▁goodbye	-1175
▁breat	-1176
ucker	-1177
ips	-1178
▁saying	-1179
▁dra	-1180
▁wee	-1181
▁par	-1182
▁both	-1183
▁sign	-1184
▁front	-1185
az	-1186
▁spend	-1187
nin	-1188
▁summer	-1189
▁started	-1190
ute	-1191
man	-1192
▁sch	-1193
▁between	-1194
▁danc	-1195
ount	-1196
▁shoot	-1197
▁shad	-1198
▁dec	-1199
▁ce	-1200
▁brain	-1201
▁ten	-1202
▁lookin	-1203
▁3	-1204
▁gang	-1205
▁x	-1206
▁jump	-1207
oked	-1208
▁dick	-1209
▁kids	-1210
ons	-1211
▁blind	-1212
▁caught	-1213
▁control	-1214
▁tryin	-1215
ried	-1216
▁wouldn	-1217
▁promise	-1218
ched	-1219
ows	-1220
light	-1221
▁conf	-1222
▁yet	-1223
▁taking	-1224
arth	-1225
▁pict	-1226
ith	-1227
▁felt	-1228
▁mag	-1229
▁sorry	-1230
▁mouth	-1231
▁tired	-1232
vy	-1233
▁green	-1234
▁great	-1235
dle	-1236
its	-1237
▁picture	-1238
itting	-1239
▁track	-1240
▁block	-1241
ating	-1242
sc	-1243
▁wasn	-1244
▁fell	-1245
more	-1246
▁comin	-1247
▁bright	-1248
▁ser	-1249
▁nice	-1250
als	-1251
▁.	-1252
ect	-1253
▁earth	-1254
▁bur	-1255
ills	-1256
▁hood	-1257
▁ins	-1258
▁four	-1259
▁loved	-1260
▁bust	-1261
▁wo	-1262
▁mis	-1263
▁reach	-1264
▁skin	-1265
▁perfect	-1266
▁club	-1267
morrow	-1268
yle	-1269
ren	-1270
▁whoa	-1271
▁whatever	-1272
▁tomorrow	-1273
ssed	-1274
▁wear	-1275
osed	-1276
▁very	-1277
▁ring	-1278
ret	-1279
▁doll	-1280
▁swear	-1281
▁everyone	-1282
▁apart	-1283
▁daddy	-1284
▁such	-1285
▁breath	-1286
ready	-1287
▁clear	-1288
▁cal	-1289
oc	-1290
▁less	-1291
▁col	-1292
▁already	-1293
ier	-1294
aces	-1295
▁bang	-1296
▁year	-1297
▁supp	-1298
▁reg	-1299
iness	-1300
▁ty	-1301
▁sto	-1302
▁bat	-1303
▁puss	-1304
head	-1305
▁walking	-1306
▁men	-1307
▁ive	-1308
▁hum	-1309
▁stick	-1310
▁school	-1311
▁above	-1312
▁trouble	-1313
▁hom	-1314
▁whis	-1315
tain	-1316
▁playing	-1317
▁power	-1318
ition	-1319
sw	-1320
▁takes	-1321
ards	-1322
▁id	-1323
▁knee	-1324
▁seem	-1325
ippin	-1326
▁lady	-1327
▁que	-1328
ots	-1329
ces	-1330
dd	-1331
▁jes	-1332
▁4	-1333
▁train	-1334
▁sen	-1335
▁&	-1336
▁feelin	-1337
▁inst	-1338
▁rep	-1339
▁mot	-1340
ian	-1341
ude	-1342
▁turned	-1343
▁sim	-1344
mo	-1345
▁called	-1346
▁send	-1347
▁ones	-1348
ching	-1349
▁talkin	-1350
ging	-1351
▁anymore	-1352
ib	-1353
▁hour	-1354
▁dre	-1355
med	-1356
▁read	-1357
▁pussy	-1358
▁okay	-1359
▁calling	-1360
lo	-1361
▁yours	-1362
ner	-1363
▁six	-1364
▁squ	-1365
▁luck	-1366
ange	-1367
▁rise	-1368
▁says	-1369
lly	-1370
raid	-1371
▁buy	-1372
▁proble	-1373
▁chill	-1374
not	-1375
▁imp	-1376
▁jesus	-1377
aa	-1378
▁att	-1379
umber	-1380
▁emp	-1381
▁lead	-1382
▁doin	-1383
und	-1384
▁pen	-1385
▁lips	-1386
ich	-1387
▁fact	-1388
▁devil	-1389
▁build	-1390
▁story	-1391
▁standing	-1392
▁thank	-1393
▁doesn	-1394
unt	-1395
▁nights	-1396
bb	-1397
▁spit	-1398
able	-1399
▁mur	-1400
▁stri	-1401
▁knock	-1402
▁lil	-1403
▁sy	-1404
▁upon	-1405
▁quick	-1406
▁country	-1407
▁worry	-1408
▁ly	-1409
▁afraid	-1410
▁pri	-1411
▁river	-1412
▁holding	-1413
ittin	-1414
▁livin	-1415
iv	-1416
▁crack	-1417
▁ind	-1418
cha	-1419
▁known	-1420
▁pat	-1421
▁fake	-1422
thin	-1423
▁lets	-1424
▁blame	-1425
▁ice	-1426
▁motherfucker	-1427
▁sell	-1428
▁mi	-1429
▁wants	-1430
▁stuck	-1431
▁fing	-1432
▁dou	-1433
▁fut	-1434
--	-1435
▁answ	-1436
▁ear	-1437
▁hearts	-1438
mas	-1439
▁sold	-1440
anger	-1441
ugs	-1442
▁ways	-1443
▁mer	-1444
ets	-1445
▁cash	-1446
▁voice	-1447
▁corn	-1448
▁dest	-1449
▁clos	-1450
co	-1451
▁super	-1452
ible	-1453
ucked	-1454
cu	-1455
▁diam	-1456
▁tear	-1457
▁mile	-1458
▁cross	-1459
▁breathe	-1460
▁scared	-1461
▁mir	-1462
▁sear	-1463
▁faith	-1464
bt	-1465
▁pur	-1466
▁prob	-1467
▁family	-1468
▁pol	-1469
▁vis	-1470
▁cap	-1471
key	-1472
my	-1473
▁bott	-1474
▁rel	-1475
ised	-1476
▁taste	-1477
▁second	-1478
▁leaving	-1479
▁ret	-1480
▁tra	-1481
▁quest	-1482
▁write	-1483
▁expl	-1484
▁deal	-1485
▁burning	-1486
▁style	-1487
▁future	-1488
▁dist	-1489
▁rapp	-1490
▁father	-1491
▁push	-1492
ten	-1493
▁moving	-1494
itch	-1495
ably	-1496
▁number	-1497
▁meant	-1498
▁deser	-1499
▁clot	-1500
tend	-1501
da	-1502
▁char	-1503
▁smok	-1504
▁million	-1505
▁freak	-1506
ations	-1507
land	-1508
▁nah	-1509
mp	-1510
▁giving	-1511
▁outside	-1512
▁somethin	-1513
▁dem	-1514
▁sile	-1515
▁dear	-1516
▁heat	-1517
▁dirty	-1518
▁somewhere	-1519
ountain	-1520
▁loud	-1521
▁hig	-1522
▁carry	-1523
▁ob	-1524
ical	-1525
▁compl	-1526
▁near	-1527
ipping	-1528
▁keeps	-1529
▁wal	-1530
▁shin	-1531
▁christmas	-1532
▁self	-1533
▁five	-1534
▁thoughts	-1535
▁ref	-1536
▁coll	-1537
vor	-1538
cy	-1539
▁paper	-1540
ial	-1541
ky	-1542
▁across	-1543
mit	-1544
▁5	-1545
▁weed	-1546
▁probably	-1547
gin	-1548
▁huh	-1549
▁guy	-1550
▁couple	-1551
ote	-1552
▁rather	-1553
▁hook	-1554
▁cho	-1555
▁rad	-1556
▁minute	-1557
omen	-1558
ror	-1559
▁empty	-1560
els	-1561
▁finally	-1562
▁against	-1563
▁everyday	-1564
▁begin	-1565
▁*	-1566
▁hor	-1567
▁pack	-1568
▁fie	-1569
▁suck	-1570
▁clean	-1571
▁chick	-1572
▁songs	-1573
▁runnin	-1574
▁watching	-1575
▁telling	-1576
het	-1577
▁lover	-1578
▁lives	-1579
▁lovin	-1580
▁point	-1581
▁few	-1582
▁fat	-1583
▁singing	-1584
00	-1585
ron	-1586
▁fucked	-1587
▁add	-1588
▁crow	-1589
▁kinda	-1590
▁ele	-1591
▁ste	-1592
▁hund	-1593
▁hust	-1594
▁feelings	-1595
▁which	-1596
ousand	-1597
▁theres	-1598
▁south	-1599
akes	-1600
▁spot	-1601
min	-1602
▁je	-1603
▁jack	-1604
cial	-1605
▁spr	-1606
▁mountain	-1607
▁?	-1608
▁women	-1609
de	-1610
▁laugh	-1611
▁memor	-1612
▁clothes	-1613
▁changed	-1614
▁become	-1615
▁sight	-1616
▁treat	-1617
▁mem	-1618
ison	-1619
▁space	-1620
▁lad	-1621
aster	-1622
▁waste	-1623
▁den	-1624
▁choo	-1625
▁grind	-1626
▁mr	-1627
▁flame	-1628
▁thousand	-1629
ken	-1630
▁rich	-1631
▁spin	-1632
▁wis	-1633
▁knees	-1634
▁dope	-1635
▁darling	-1636
▁pers	-1637
▁cri	-1638
▁type	-1639
▁west	-1640
icked	-1641
ming	-1642
▁queen	-1643
▁children	-1644
▁hung	-1645
▁fig	-1646
night	-1647
▁doubt	-1648
▁til	-1649
▁ed	-1650
▁weak	-1651
neath	-1652
▁loves	-1653
▁shut	-1654
ates	-1655
▁bleed	-1656
of	-1657
▁crying	-1658
ift	-1659
▁shoes	-1660
▁int	-1661
▁angel	-1662
▁cannot	-1663
▁higher	-1664
cle	-1665
▁ent	-1666
▁window	-1667
▁wine	-1668
▁working	-1669
▁wast	-1670
▁small	-1671
king	-1672
▁belong	-1673
imp	-1674
▁wont	-1675
iling	-1676
▁hip	-1677
▁memories	-1678
▁thinkin	-1679
▁neck	-1680
▁inf	-1681
▁needs	-1682
▁drown	-1683
▁drunk	-1684
▁dep	-1685
ru	-1686
▁fad	-1687
kers	-1688
▁ve	-1689
▁middle	-1690
▁hy	-1691
▁funny	-1692
▁blues	-1693
ws	-1694
▁spir	-1695
▁bigg	-1696
▁shout	-1697
▁warm	-1698
▁shame	-1699
▁hundred	-1700
▁poc	-1701
▁bag	-1702
▁looks	-1703
▁figure	-1704
▁closer	-1705
▁wife	-1706
▁motherfuck	-1707
▁paid	-1708
▁scen	-1709
rie	-1710
ear	-1711
lls	-1712
▁def	-1713
▁ooo	-1714
▁nowhere	-1715
▁dancing	-1716
▁cons	-1717
▁woah	-1718
▁cand	-1719
."	-1720
▁sme	-1721
▁pretend	-1722
zz	-1723
gn	-1724
ger	-1725
▁outta	-1726
vel	-1727
▁sayin	-1728
▁9	-1729
▁cat	-1730
▁single	-1731
sent	-1732
oth	-1733
▁del	-1734
tern	-1735
irt	-1736
imb	-1737
cept	-1738
▁fresh	-1739
unch	-1740
▁sitting	-1741
▁looked	-1742
ual	-1743
▁cir	-1744
ey	-1745
▁trip	-1746
▁ju	-1747
ohn	-1748
▁oce	-1749
▁snow	-1750
▁means	-1751
▁pour	-1752
ork	-1753
▁piece	-1754
▁john	-1755
▁job	-1756
▁shaw	-1757
▁nat	-1758
▁state	-1759
▁mc	-1760
onds	-1761
sta	-1762
▁everywhere	-1763
▁cla	-1764
▁hid	-1765
▁dust	-1766
▁surv	-1767
▁gen	-1768
▁walked	-1769
most	-1770
host	-1771
▁bill	-1772
▁brand	-1773
ics	-1774
▁none	-1775
▁respect	-1776
▁ghost	-1777
▁sense	-1778
▁glad	-1779
▁glass	-1780
▁losing	-1781
▁soft	-1782
ned	-1783
▁isn	-1784
cks	-1785
▁bou	-1786
▁ahead	-1787
▁wide	-1788
▁er	-1789
▁radio	-1790
!"	-1791
▁twist	-1792
▁clou	-1793
▁share	-1794
▁bottle	-1795
▁esc	-1796
▁suc	-1797
▁safe	-1798
▁makin	-1799
▁band	-1800
▁mix	-1801
▁class	-1802
▁fade	-1803
une	-1804
▁crowd	-1805
▁ja	-1806
▁forgive	-1807
▁grab	-1808
▁shawty	-1809
▁sent	-1810
▁press	-1811
ilt	-1812
▁gro	-1813
▁dig	-1814
▁longer	-1815
▁missing	-1816
▁tor	-1817
▁rolling	-1818
▁book	-1819
ead	-1820
▁grand	-1821
▁darkness	-1822
▁crew	-1823
▁tee	-1824
▁heavy	-1825
ved	-1826
▁cor	-1827
▁truck	-1828
▁lyric	-1829
read	-1830
▁pra	-1831
ils	-1832
▁answer	-1833
▁nor	-1834
▁joy	-1835
▁sil	-1836
▁walls	-1837
▁cro	-1838
▁dying	-1839
▁storm	-1840
▁heal	-1841
▁kept	-1842
▁test	-1843
▁almost	-1844
rew	-1845
▁bless	-1846
▁art	-1847
▁ter	-1848
▁miles	-1849
▁conc	-1850
act	-1851
asure	-1852
▁stone	-1853
▁hall	-1854
no	-1855
▁gim	-1856
▁tree	-1857
▁lines	-1858
▁cour	-1859
▁jud	-1860
▁double	-1861
▁imag	-1862
▁choose	-1863
amp	-1864
fuck	-1865
do	-1866
▁memory	-1867
▁vi	-1868
▁wet	-1869
▁played	-1870
▁buck	-1871
▁games	-1872
▁chain	-1873
app	-1874
▁sal	-1875
▁spl	-1876
atin	-1877
▁died	-1878
▁case	-1879
▁team	-1880
▁pos	-1881
▁fix	-1882
▁lift	-1883
vent	-1884
▁sub	-1885
▁wat	-1886
▁pride	-1887
▁swing	-1888
▁rhymes	-1889
▁favor	-1890
▁business	-1891
▁special	-1892
▁murder	-1893
▁magic	-1894
▁dress	-1895
▁ign	-1896
meric	-1897
ugg	-1898
▁stup	-1899
▁breaking	-1900
▁trave	-1901
▁paint	-1902
▁sist	-1903
▁sol	-1904
town	-1905
▁poor	-1906
▁bomb	-1907
▁ment	-1908
▁americ	-1909
▁box	-1910
▁rollin	-1911
ward	-1912
▁foot	-1913
▁human	-1914
▁having	-1915
ape	-1916
▁sand	-1917
▁turning	-1918
▁lying	-1919
▁pas	-1920
▁stupid	-1921
▁haters	-1922
▁ocean	-1923
▁quit	-1924
▁fair	-1925
▁climb	-1926
▁within	-1927
▁loose	-1928
▁corner	-1929
ike	-1930
▁park	-1931
▁cow	-1932
ete	-1933
▁trees	-1934
kin	-1935
▁chest	-1936
▁guns	-1937
▁bottom	-1938
▁cup	-1939
▁ladies	-1940
how	-1941
▁clouds	-1942
▁dumb	-1943
shine	-1944
frie	-1945
▁inc	-1946
▁smell	-1947
onest	-1948
▁trick	-1949
▁enem	-1950
sel	-1951
▁stack	-1952
▁instead	-1953
▁someday	-1954
▁dirt	-1955
eal	-1956
▁evil	-1957
▁tong	-1958
▁lou	-1959
ither	-1960
▁:	-1961
rise	-1962
▁learned	-1963
br	-1964
aughter	-1965
▁fol	-1966
▁strange	-1967
gy	-1968
▁sug	-1969
▁feed	-1970
vie	-1971
▁forgot	-1972
▁thug	-1973
▁dollar	-1974
▁record	-1975
▁anyone	-1976
▁brid	-1977
▁person	-1978
ters	-1979
▁ghet	-1980
▁week	-1981
ced	-1982
▁san	-1983
▁inv	-1984
▁kis	-1985
▁brought	-1986
▁short	-1987
▁honest	-1988
▁bow	-1989
▁hole	-1990
▁homie	-1991
▁doo	-1992
▁beats	-1993
▁dreaming	-1994
▁wel	-1995
ising	-1996
▁ghetto	-1997
line	-1998
cess	-1999
▁bee	-2000
▁dry	-2001
▁killing	-2002
▁supposed	-2003
lla	-2004
▁brown	-2005
▁pimp	-2006
▁hello	-2007
▁exp	-2008
▁plus	-2009
▁holy	-2010
▁scene	-2011
▁shall	-2012
▁whats	-2013
▁needed	-2014
▁riding	-2015
▁simple	-2016
iet	-2017
va	-2018
▁bare	-2019
▁raise	-2020
▁nine	-2021
▁key	-2022
▁repe	-2023
ges	-2024
▁playin	-2025
▁spirit	-2026
▁stuff	-2027
▁gimme	-2028
▁later	-2029
▁wings	-2030
▁freed	-2031
▁proud	-2032
ants	-2033
▁fit	-2034
ipped	-2035
▁welcome	-2036
we	-2037
boy	-2038
▁med	-2039
▁bump	-2040
▁cop	-2041
▁ben	-2042
▁problem	-2043
air	-2044
▁lean	-2045
▁mmm	-2046
iver	-2047
▁vie	-2048
▁shining	-2049
▁held	-2050
▁return	-2051
▁wra	-2052
▁bound	-2053
ton	-2054
ture	-2055
▁rappers	-2056
▁gas	-2057
▁dime	-2058
?"	-2059
go	-2060
ject	-2061
▁glory	-2062
jo	-2063
▁ran	-2064
ized	-2065
▁remain	-2066
▁least	-2067
ale	-2068
▁bank	-2069
**	-2070
▁boss	-2071
▁secret	-2072
▁disapp	-2073
ode	-2074
▁bones	-2075
ana	-2076
▁hurts	-2077
▁chee	-2078
▁freedom	-2079
▁boom	-2080
▁bey	-2081
▁battle	-2082
▁ends	-2083
▁yester	-2084
▁momma	-2085
▁vict	-2086
▁lock	-2087
▁danger	-2088
ony	-2089
▁insane	-2090
▁mel	-2091
▁asked	-2092
▁shots	-2093
▁pound	-2094
ery	-2095
▁surp	-2096
▁question	-2097
▁yesterday	-2098
ention	-2099
▁law	-2100
▁mirror	-2101
ices	-2102
▁cars	-2103
▁news	-2104
▁ago	-2105
▁woo	-2106
▁weight	-2107
▁awake	-2108
▁nut	-2109
ird	-2110
▁main	-2111
▁grown	-2112
▁anyway	-2113
iday	-2114
hhhh	-2115
▁path	-2116
▁grave	-2117
▁angels	-2118
enty	-2119
▁mut	-2120
▁eight	-2121
ution	-2122
▁winter	-2123
ens	-2124
//	-2125
▁comm	-2126
▁remind	-2127
▁sund	-2128
cious	-2129
kets	-2130
cl	-2131
▁shor	-2132
▁sounds	-2133
▁fame	-2134
▁turns	-2135
▁finger	-2136
▁sink	-2137
▁crime	-2138
under	-2139
room	-2140
friend	-2141
▁beer	-2142
▁atta	-2143
▁realize	-2144
ident	-2145
▁bought	-2146
bel	-2147
▁happened	-2148
▁numb	-2149
▁twenty	-2150
▁load	-2151
▁stress	-2152
▁hes	-2153
use	-2154
▁rub	-2155
▁locked	-2156
ides	-2157
ience	-2158
▁spent	-2159
▁wood	-2160
▁knowing	-2161
▁scr	-2162
ertain	-2163
▁dawn	-2164
▁fro	-2165
▁writ	-2166
ina	-2167
▁price	-2168
▁sunshine	-2169
▁tongue	-2170
▁hoping	-2171
▁fighting	-2172
▁mas	-2173
▁east	-2174
▁somehow	-2175
▁harder	-2176
▁ner	-2177
▁spread	-2178
▁pot	-2179
▁chic	-2180
▁hill	-2181
▁clock	-2182
▁fle	-2183
▁6	-2184
▁deserve	-2185
▁favorite	-2186
▁survive	-2187
▁seven	-2188
▁drag	-2189
▁ow	-2190
▁und	-2191
▁tall	-2192
▁twice	-2193
▁diamonds	-2194
▁wre	-2195
▁ohh	-2196
▁drugs	-2197
▁thang	-2198
▁shar	-2199
dom	-2200
▁swim	-2201
▁york	-2202
▁wave	-2203
▁beyond	-2204
▁anybody	-2205
▁gri	-2206
▁haven	-2207
men	-2208
ient	-2209
ief	-2210
▁rose	-2211
▁silence	-2212
▁fla	-2213
atic	-2214
▁quite	-2215
▁creep	-2216
▁demon	-2217
▁drinking	-2218
▁8	-2219
▁hanging	-2220
▁sleeping	-2221
▁oooh	-2222
▁cover	-2223
▁filled	-2224
▁tem	-2225
▁spark	-2226
▁coast	-2227
res	-2228
▁slowly	-2229
▁boot	-2230
▁blast	-2231
▁tough	-2232
▁leaves	-2233
▁div	-2234
ering	-2235
▁hours	-2236
ler	-2237
▁flip	-2238
▁speed	-2239
gu	-2240
▁bird	-2241
▁takin	-2242
▁wrote	-2243
vi	-2244
▁prove	-2245
▁ima	-2246
▁acc	-2247
▁gangsta	-2248
set	-2249
▁disc	-2250
▁explain	-2251
ii	-2252
▁jam	-2253
▁leg	-2254
iny	-2255
▁asking	-2256
▁smoking	-2257
▁grace	-2258
▁lit	-2259
▁bone	-2260
▁emot	-2261
▁swag	-2262
▁golden	-2263
▁master	-2264
▁field	-2265
▁seat	-2266
isf	-2267
▁steal	-2268
▁desire	-2269
▁given	-2270
▁sweat	-2271
▁cast	-2272
▁lately	-2273
▁dj	-2274
▁escape	-2275
ator	-2276
▁bye	-2277
▁driving	-2278
▁folks	-2279
ba	-2280
fl	-2281
▁searching	-2282
▁brothers	-2283
▁craw	-2284
▁pump	-2285
eel	-2286
▁table	-2287
▁rules	-2288
▁suff	-2289
bs	-2290
▁sittin	-2291
▁whenever	-2292
▁ev	-2293
▁problems	-2294
▁screaming	-2295
▁inter	-2296
▁tow	-2297
▁lucky	-2298
▁bri	-2299
▁lick	-2300
hafuck	-2301
umble	-2302
▁store	-2303
▁chase	-2304
aked	-2305
▁pus	-2306
ually	-2307
▁guys	-2308
▁laid	-2309
▁hon	-2310
▁seeing	-2311
▁heads	-2312
ined	-2313
▁sna	-2314
▁shes	-2315
▁yall	-2316
▁cook	-2317
▁places	-2318
▁repeat	-2319
▁view	-2320
▁imma	-2321
▁handle	-2322
▁gent	-2323
▁starts	-2324
▁birth	-2325
▁steady	-2326
▁whip	-2327
▁acting	-2328
▁sugar	-2329
▁mom	-2330
▁sunday	-2331
▁ol	-2332
▁amaz	-2333
▁stare	-2334
▁dough	-2335
▁food	-2336
▁skies	-2337
▁liqu	-2338
▁satisf	-2339
rets	-2340
▁beauty	-2341
illy	-2342
nes	-2343
▁aut	-2344
▁rev	-2345
iff	-2346
▁bridge	-2347
▁flying	-2348
▁teach	-2349
▁switch	-2350
▁midnight	-2351
▁hero	-2352
▁race	-2353
▁attention	-2354
▁rush	-2355
▁tv	-2356
▁fate	-2357
▁fant	-2358
▁vision	-2359
▁mod	-2360
cho	-2361
old	-2362
▁mach	-2363
▁pac	-2364
▁arm	-2365
▁quiet	-2366
▁slip	-2367
▁movin	-2368
cus	-2369
▁bigger	-2370
▁strugg	-2371
▁chur	-2372
▁age	-2373
▁ble	-2374
▁guit	-2375
▁youll	-2376
▁streng	-2377
▁ridin	-2378
▁waitin	-2379
▁dude	-2380
▁fur	-2381
▁whiskey	-2382
▁dat	-2383
▁cried	-2384
▁draw	-2385
▁weather	-2386
▁neigh	-2387
▁tex	-2388
▁bars	-2389
▁eng	-2390
selves	-2391
▁stage	-2392
▁diamond	-2393
▁fingers	-2394
▁moves	-2395
▁pill	-2396
ground	-2397
▁neighb	-2398
▁early	-2399
▁silver	-2400
▁rob	-2401
▁sister	-2402
▁ext	-2403
yy	-2404
▁others	-2405
lesh	-2406
▁pocket	-2407
▁emb	-2408
▁sac	-2409
▁built	-2410
ns	-2411
▁sexy	-2412
▁x2	-2413
▁expect	-2414
▁either	-2415
▁pieces	-2416
gr	-2417
▁claim	-2418
▁faces	-2419
yal	-2420
▁rhyth	-2421
phone	-2422
▁ge	-2423
▁mary	-2424
oooo	-2425
den	-2426
▁aye	-2427
▁color	-2428
▁reality	-2429
ney	-2430
▁beside	-2431
ipe	-2432
du	-2433
▁cops	-2434
▁fed	-2435
▁plans	-2436
▁ug	-2437
shit	-2438
gie	-2439
▁zone	-2440
▁worst	-2441
▁taken	-2442
▁season	-2443
▁mil	-2444
▁flesh	-2445
▁shorty	-2446
▁cock	-2447
▁raw	-2448
ored	-2449
▁killed	-2450
▁drum	-2451
for	-2452
▁los	-2453
▁rough	-2454
▁judge	-2455
wood	-2456
sy	-2457
▁sorrow	-2458
ited	-2459
▁legs	-2460
▁bend	-2461
▁bree	-2462
▁gift	-2463
ley	-2464
iled	-2465
▁cost	-2466
▁det	-2467
▁woke	-2468
ments	-2469
▁adv	-2470
▁regret	-2471
▁stole	-2472
▁cats	-2473
▁stud	-2474
▁strength	-2475
▁church	-2476
amb	-2477
▁10	-2478
▁mercy	-2479
▁wheel	-2480
▁shadow	-2481
▁bite	-2482
▁whisper	-2483
ords	-2484
ctor	-2485
▁keeping	-2486
▁teeth	-2487
▁crown	-2488
rs	-2489
▁inn	-2490
▁cos	-2491
▁bread	-2492
▁rhythm	-2493
▁aff	-2494
▁addict	-2495
▁walkin	-2496
▁anywhere	-2497
▁hits	-2498
▁lovers	-2499
▁month	-2500
▁minds	-2501
▁chains	-2502
cher	-2503
▁highway	-2504
▁mistake	-2505
▁chasing	-2506
▁shadows	-2507
▁drug	-2508
▁glow	-2509
let	-2510
rest	-2511
▁rele	-2512
▁cas	-2513
▁smokin	-2514
▁jeans	-2515
▁swall	-2516
▁beef	-2517
▁champ	-2518
att	-2519
▁fau	-2520
▁hist	-2521
odies	-2522
▁bounce	-2523
▁raised	-2524
aced	-2525
▁wondering	-2526
▁beneath	-2527
▁chose	-2528
▁coff	-2529
▁taught	-2530
▁search	-2531
back	-2532
▁birds	-2533
▁police	-2534
ealous	-2535
ray	-2536
▁joke	-2537
▁pal	-2538
▁stom	-2539
the	-2540
rif	-2541
▁mark	-2542
▁rocks	-2543
▁etern	-2544
any	-2545
▁jew	-2546
▁dire	-2547
▁pulled	-2548
tered	-2549
▁opp	-2550
ished	-2551
▁ham	-2552
▁smo	-2553
▁passed	-2554
▁stronger	-2555
▁shows	-2556
▁ca	-2557
itten	-2558
▁post	-2559
▁loc	-2560
▁jealous	-2561
ball	-2562
▁bullshit	-2563
ety	-2564
▁funky	-2565
▁es	-2566
▁growing	-2567
▁beast	-2568
▁rip	-2569
▁slide	-2570
▁morn	-2571
▁hustle	-2572
▁pet	-2573
used	-2574
▁kit	-2575
▁stor	-2576
▁passion	-2577
▁cig	-2578
▁fail	-2579
ume	-2580
olog	-2581
▁gal	-2582
▁flight	-2583
ages	-2584
▁jer	-2585
▁worse	-2586
▁blowing	-2587
▁funk	-2588
▁prin	-2589
▁settle	-2590
▁tha	-2591
▁jail	-2592
ered	-2593
aze	-2594
pper	-2595
▁cele	-2596
▁dev	-2597
▁vibe	-2598
▁aim	-2599
ities	-2600
▁thunder	-2601
▁mistakes	-2602
▁falls	-2603
▁rockin	-2604
▁history	-2605
▁exist	-2606
so	-2607
▁ric	-2608
▁doors	-2609
▁swallow	-2610
▁message	-2611
▁guitar	-2612
ult	-2613
ract	-2614
▁fools	-2615
▁pressure	-2616
end	-2617
▁busy	-2618
▁youve	-2619
ries	-2620
▁bles	-2621
▁const	-2622
▁bitter	-2623
▁shouldn	-2624
▁bass	-2625
▁choice	-2626
▁rom	-2627
▁bullet	-2628
▁listening	-2629
leep	-2630
▁waves	-2631
▁letter	-2632
bble	-2633
▁calls	-2634
▁sail	-2635
▁wasted	-2636
▁edge	-2637
▁movie	-2638
▁praise	-2639
▁motherfuckin	-2640
▁cy	-2641
uel	-2642
▁bud	-2643
▁north	-2644
▁parad	-2645
usion	-2646
▁motherfuckers	-2647
▁spoke	-2648
▁digg	-2649
▁trans	-2650
▁silent	-2651
eah	-2652
ination	-2653
▁shoulder	-2654
▁blessed	-2655
▁stranger	-2656
ision	-2657
▁drift	-2658
▁din	-2659
▁prot	-2660
stem	-2661
▁callin	-2662
▁conne	-2663
▁20	-2664
▁candy	-2665
▁ahh	-2666
▁scre	-2667
▁yellow	-2668
ik	-2669
▁closed	-2670
▁hen	-2671
kn	-2672
ashing	-2673
▁lif	-2674
▁tellin	-2675
▁fish	-2676
▁wash	-2677
▁hungry	-2678
inal	-2679
▁liquor	-2680
▁system	-2681
▁exc	-2682
ames	-2683
▁bec	-2684
▁asleep	-2685
▁beach	-2686
▁souls	-2687
▁flowers	-2688
▁drama	-2689
▁clap	-2690
ique	-2691
▁repl	-2692
▁bear	-2693
bre	-2694
▁lived	-2695
iest	-2696
▁broad	-2697
▁blo	-2698
▁innoc	-2699
▁crib	-2700
▁grass	-2701
▁groove	-2702
sp	-2703
▁cent	-2704
▁grew	-2705
▁gut	-2706
▁imagine	-2707
rr	-2708
▁attack	-2709
amed	-2710
▁tracks	-2711
▁cloud	-2712
▁yuh	-2713
ular	-2714
down	-2715
▁click	-2716
▁steel	-2717
uu	-2718
▁flash	-2719
▁mission	-2720
▁dare	-2721
▁celebr	-2722
▁dy	-2723
▁butter	-2724
ature	-2725
▁poppin	-2726
▁prison	-2727
▁cell	-2728
▁boots	-2729
▁brings	-2730
▁tick	-2731
▁calif	-2732
▁tur	-2733
▁excu	-2734
▁ship	-2735
arter	-2736
▁sep	-2737
▁chicken	-2738
itty	-2739
▁force	-2740
▁letting	-2741
▁breeze	-2742
▁stood	-2743
▁deeper	-2744
▁destro	-2745
▁headed	-2746
▁/	-2747
▁keys	-2748
▁homies	-2749
▁rapper	-2750
▁staring	-2751
▁complete	-2752
aine	-2753
▁fallin	-2754
▁happiness	-2755
iole	-2756
resent	-2757
▁pictures	-2758
▁givin	-2759
▁tru	-2760
▁punk	-2761
▁laughing	-2762
▁trippin	-2763
▁peep	-2764
▁nation	-2765
▁californ	-2766
▁weeke	-2767
▁older	-2768
▁noise	-2769
▁knife	-2770
lax	-2771
▁pha	-2772
▁van	-2773
▁calm	-2774
▁surround	-2775
▁lane	-2776
▁rot	-2777
▁friday	-2778
▁disappear	-2779
▁bas	-2780
▁uhh	-2781
▁didnt	-2782
__	-2783
▁circ	-2784
▁form	-2785
ted	-2786
▁inte	-2787
▁horse	-2788
▁underneath	-2789
▁building	-2790
▁nose	-2791
▁course	-2792
▁eas	-2793
▁distance	-2794
▁soldier	-2795
▁wishing	-2796
▁hol	-2797
▁defe	-2798
▁stopped	-2799
▁lovely	-2800
dden	-2801
▁holdin	-2802
xic	-2803
▁viole	-2804
▁workin	-2805
ided	-2806
▁pan	-2807
▁signs	-2808
▁lyrics	-2809
▁relax	-2810
▁row	-2811
▁unless	-2812
▁gives	-2813
▁blunt	-2814
pes	-2815
wind	-2816
icker	-2817
▁fift	-2818
▁hurry	-2819
▁deny	-2820
▁wherever	-2821
▁sip	-2822
▁grey	-2823
▁naked	-2824
▁fist	-2825
▁7	-2826
▁pure	-2827
▁hi	-2828
▁wha	-2829
▁ease	-2830
▁machine	-2831
▁below	-2832
▁dece	-2833
▁refle	-2834
▁missed	-2835
▁wrist	-2836
▁represent	-2837
ogn	-2838
ship	-2839
▁wand	-2840
▁poison	-2841
▁puff	-2842
▁mam	-2843
▁enemy	-2844
bum	-2845
▁spring	-2846
▁wound	-2847
▁gener	-2848
▁cru	-2849
▁thro	-2850
▁faded	-2851
▁prof	-2852
nts	-2853
▁california	-2854
▁tip	-2855
▁saved	-2856
▁situ	-2857
ully	-2858
son	-2859
▁admit	-2860
▁join	-2861
▁rat	-2862
▁fort	-2863
▁fault	-2864
▁sudden	-2865
▁slave	-2866
ga	-2867
▁flex	-2868
▁suit	-2869
▁paradise	-2870
▁gentle	-2871
hop	-2872
▁match	-2873
asty	-2874
▁breathing	-2875
▁booty	-2876
aret	-2877
▁changing	-2878
▁clown	-2879
▁anim	-2880
▁beginning	-2881
chen	-2882
▁strike	-2883
▁mood	-2884
▁hun	-2885
▁evening	-2886
oup	-2887
▁eh	-2888
▁shore	-2889
bies	-2890
con	-2891
▁drinkin	-2892
▁rag	-2893
▁cream	-2894
▁level	-2895
▁du	-2896
▁unf	-2897
▁barely	-2898
▁mac	-2899
▁pu	-2900
elu	-2901
▁recogn	-2902
▁intro	-2903
▁prep	-2904
▁bodies	-2905
▁amazing	-2906
▁dollars	-2907
▁gat	-2908
▁cheap	-2909
▁fan	-2910
▁wreck	-2911
▁cake	-2912
▁thin	-2913
▁tune	-2914
▁ears	-2915
▁pres	-2916
itude	-2917
▁nin	-2918
ider	-2919
lling	-2920
onesome	-2921
jah	-2922
▁tro	-2923
▁tele	-2924
▁exact	-2925
▁bum	-2926
lic	-2927
▁kitchen	-2928
▁lonesome	-2929
▁plain	-2930
▁threw	-2931
▁flames	-2932
▁scar	-2933
▁hoe	-2934
▁trap	-2935
▁pist	-2936
▁leavin	-2937
▁flows	-2938
cc	-2939
hood	-2940
▁ur	-2941
▁boat	-2942
▁por	-2943
▁ener	-2944
▁ban	-2945
aged	-2946
▁pleasure	-2947
ops	-2948
▁crash	-2949
▁stro	-2950
udes	-2951
▁tender	-2952
▁ought	-2953
▁satur	-2954
▁diss	-2955
▁smooth	-2956
▁bottles	-2957
ids	-2958
▁bor	-2959
▁island	-2960
▁equ	-2961
▁rac	-2962
▁jim	-2963
zen	-2964
▁rule	-2965
▁happens	-2966
▁revol	-2967
▁certain	-2968
test	-2969
▁fi	-2970
▁thick	-2971
▁roof	-2972
▁sippin	-2973
utes	-2974
▁sam	-2975
▁bay	-2976
▁breaks	-2977
▁moved	-2978
oom	-2979
▁windows	-2980
▁split	-2981
▁fears	-2982
ify	-2983
▁texas	-2984
▁questions	-2985
ural	-2986
▁coke	-2987
▁endless	-2988
ives	-2989
▁burned	-2990
▁surprise	-2991
▁wearing	-2992
nty	-2993
▁mighty	-2994
▁victim	-2995
▁page	-2996
▁ant	-2997
▁killer	-2998
▁lust	-2999
▁wicked	-3000
▁hiding	-3001
▁showed	-3002
▁grip	-3003
race	-3004
▁flat	-3005
▁writing	-3006
▁mornin	-3007
▁youth	-3008
▁kisses	-3009
▁spinning	-3010
▁holla	-3011
▁america	-3012
dam	-3013
▁psy	-3014
▁prop	-3015
▁myster	-3016
▁squee	-3017
▁duck	-3018
▁rising	-3019
▁written	-3020
▁base	-3021
▁stayed	-3022
▁pants	-3023
▁card	-3024
▁spell	-3025
▁player	-3026
▁jac	-3027
▁enjo	-3028
▁focus	-3029
▁passing	-3030
▁dogs	-3031
▁plane	-3032
▁hallelu	-3033
▁bon	-3034
▁hyp	-3035
atest	-3036
▁meaning	-3037
▁final	-3038
ified	-3039
▁buzz	-3040
▁cher	-3041
▁saturday	-3042
▁destroy	-3043
ka	-3044
▁non	-3045
▁runs	-3046
▁beating	-3047
sence	-3048
▁greatest	-3049
▁pin	-3050
▁doctor	-3051
▁dressed	-3052
ris	-3053
▁daughter	-3054
▁mud	-3055
▁fallen	-3056
▁trigg	-3057
▁whether	-3058
▁prayer	-3059
icide	-3060
▁likes	-3061
▁convers	-3062
▁hoo	-3063
▁cigaret	-3064
▁tic	-3065
▁elect	-3066
▁torn	-3067
▁serious	-3068
▁pistol	-3069
▁desp	-3070
▁names	-3071
▁nasty	-3072
▁lun	-3073
▁sle	-3074
▁weekend	-3075
bit	-3076
sa	-3077
▁ven	-3078
▁lu	-3079
ays	-3080
▁muthafuck	-3081
▁roses	-3082
izz	-3083
▁limit	-3084
▁fil	-3085
▁dip	-3086
illa	-3087
▁maj	-3088
▁date	-3089
▁starting	-3090
▁difference	-3091
▁vir	-3092
▁geor	-3093
▁veins	-3094
▁chicks	-3095
▁benz	-3096
▁faster	-3097
▁moonlight	-3098
ption	-3099
ield	-3100
▁pink	-3101
▁cad	-3102
▁roc	-3103
ille	-3104
astic	-3105
ades	-3106
▁protect	-3107
ams	-3108
▁dee	-3109
▁order	-3110
▁rocking	-3111
▁demons	-3112
▁dangerous	-3113
▁mack	-3114
▁glock	-3115
▁watched	-3116
▁tail	-3117
ital	-3118
▁bells	-3119
▁plenty	-3120
▁american	-3121
▁bell	-3122
▁secrets	-3123
▁ohhh	-3124
▁gard	-3125
▁darlin	-3126
▁reasons	-3127
▁notice	-3128
vo	-3129
▁actin	-3130
▁nature	-3131
▁wheels	-3132
▁purple	-3133
▁girlfriend	-3134
▁wasting	-3135
▁cares	-3136
▁often	-3137
▁motherfucking	-3138
▁hug	-3139
▁blowin	-3140
ners	-3141
▁extra	-3142
▁putting	-3143
▁hallelujah	-3144
see	-3145
wo	-3146
'?	-3147
▁precious	-3148
▁thanks	-3149
----	-3150
vered	-3151
▁energy	-3152
▁rum	-3153
▁ang	-3154
▁bills	-3155
▁action	-3156
▁voices	-3157
ssible	-3158
▁kissed	-3159
▁gain	-3160
▁pockets	-3161
▁struggle	-3162
▁wise	-3163
▁promised	-3164
▁exactly	-3165
▁album	-3166
▁dropped	-3167
▁motion	-3168
▁coc	-3169
▁dum	-3170
▁rings	-3171
▁underground	-3172
▁stories	-3173
▁pun	-3174
huh	-3175
▁fu	-3176
▁thrill	-3177
▁planet	-3178
▁tim	-3179
▁everytime	-3180
▁design	-3181
▁twisted	-3182
▁wonderful	-3183
▁surre	-3184
▁killin	-3185
▁misery	-3186
▁haha	-3187
▁praying	-3188
▁finish	-3189
▁vall	-3190
▁spill	-3191
▁lip	-3192
▁smart	-3193
▁scars	-3194
▁lesson	-3195
ledge	-3196
▁screw	-3197
▁tie	-3198
▁hills	-3199
ja	-3200
iers	-3201
▁joe	-3202
▁holl	-3203
▁santa	-3204
▁thugs	-3205
▁toes	-3206
▁vib	-3207
▁company	-3208
▁--	-3209
▁wanting	-3210
▁pulling	-3211
▁crush	-3212
▁weap	-3213
▁enjoy	-3214
▁worried	-3215
▁travel	-3216
▁chair	-3217
ache	-3218
ires	-3219
mme	-3220
▁curse	-3221
▁throat	-3222
▁bob	-3223
▁bringing	-3224
▁bury	-3225
▁connect	-3226
▁tatt	-3227
bl	-3228
cci	-3229
▁fold	-3230
▁tale	-3231
▁tour	-3232
▁forward	-3233
yeah	-3234
fully	-3235
▁among	-3236
cing	-3237
▁purp	-3238
▁shirt	-3239
▁stain	-3240
etime	-3241
▁ourselves	-3242
ppy	-3243
▁gucci	-3244
▁ris	-3245
▁tied	-3246
▁fans	-3247
▁cab	-3248
▁iron	-3249
▁tape	-3250
▁tech	-3251
▁lame	-3252
ression	-3253
you	-3254
▁sheets	-3255
▁pub	-3256
▁situation	-3257
ically	-3258
▁enemies	-3259
▁minutes	-3260
▁wack	-3261
▁cryin	-3262
▁bags	-3263
▁coffee	-3264
mare	-3265
▁married	-3266
▁lack	-3267
icated	-3268
▁ast	-3269
▁kno	-3270
ians	-3271
rap	-3272
▁decide	-3273
▁shy	-3274
▁daw	-3275
▁destiny	-3276
▁burns	-3277
ero	-3278
▁hmm	-3279
▁butt	-3280
▁bother	-3281
▁hammer	-3282
▁singin	-3283
▁nightmare	-3284
▁pit	-3285
aint	-3286
▁dudes	-3287
▁mountains	-3288
▁unc	-3289
▁fantasy	-3290
▁mass	-3291
▁horn	-3292
▁vac	-3293
▁gods	-3294
vous	-3295
▁except	-3296
▁desert	-3297
▁silly	-3298
▁boogie	-3299
▁trapped	-3300
▁steps	-3301
▁smiling	-3302
▁neg	-3303
▁strang	-3304
▁micro	-3305
fort	-3306
▁tells	-3307
▁cheese	-3308
▁contin	-3309
▁mans	-3310
▁mental	-3311
▁flag	-3312
▁shaking	-3313
▁thee	-3314
▁famous	-3315
▁circle	-3316
▁hangin	-3317
heart	-3318
▁changes	-3319
▁drank	-3320
▁garden	-3321
▁text	-3322
ww	-3323
▁truly	-3324
▁third	-3325
▁wrapped	-3326
ern	-3327
▁johnny	-3328
▁ugly	-3329
▁forgotten	-3330
ury	-3331
oned	-3332
aly	-3333
▁fal	-3334
▁answers	-3335
▁tal	-3336
iding	-3337
nie	-3338
▁bru	-3339
fection	-3340
vate	-3341
▁lied	-3342
▁emotion	-3343
▁oo	-3344
▁chillin	-3345
▁eating	-3346
▁became	-3347
▁gar	-3348
▁onto	-3349
▁disgu	-3350
▁waited	-3351
face	-3352
▁bullets	-3353
▁dancin	-3354
▁holly	-3355
▁savi	-3356
▁hollow	-3357
▁stun	-3358
▁stret	-3359
▁confused	-3360
▁release	-3361
▁watchin	-3362
▁ashes	-3363
▁blows	-3364
▁bein	-3365
▁forth	-3366
sin	-3367
▁colors	-3368
arant	-3369
▁19	-3370
▁complain	-3371
▁2x	-3372
ada	-3373
▁brave	-3374
▁present	-3375
▁bent	-3376
cer	-3377
▁ou	-3378
▁trunk	-3379
▁jour	-3380
ashed	-3381
well	-3382
▁jet	-3383
idence	-3384
bow	-3385
▁reve	-3386
▁thru	-3387
▁patient	-3388
acher	-3389
▁ayy	-3390
▁pills	-3391
▁buried	-3392
▁excuse	-3393
▁sacrif	-3394
▁fac	-3395
▁rent	-3396
▁strip	-3397
▁shop	-3398
▁mart	-3399
▁piss	-3400
▁tap	-3401
ili	-3402
▁havin	-3403
▁thinks	-3404
oon	-3405
▁babies	-3406
doo	-3407
▁shed	-3408
▁pushing	-3409
rate	-3410
▁juice	-3411
elve	-3412
▁ending	-3413
ium	-3414
▁guide	-3415
▁cries	-3416
▁seemed	-3417
ancy	-3418
▁president	-3419
▁neighbor	-3420
over	-3421
▁lar	-3422
▁relig	-3423
▁finna	-3424
bed	-3425
ffic	-3426
▁mirac	-3427
▁cowboy	-3428
▁records	-3429
till	-3430
▁arr	-3431
▁laying	-3432
▁witness	-3433
▁toast	-3434
▁constant	-3435
▁drinks	-3436
▁blew	-3437
break	-3438
▁staying	-3439
gun	-3440
aaaa	-3441
▁ignore	-3442
▁guard	-3443
▁counting	-3444
▁promises	-3445
▁lemme	-3446
▁shines	-3447
▁trash	-3448
▁scratch	-3449
irty	-3450
▁confess	-3451
▁lifetime	-3452
▁thre	-3453
rome	-3454
tes	-3455
▁serve	-3456
▁cards	-3457
▁seek	-3458
▁mention	-3459
▁frame	-3460
▁bal	-3461
▁hating	-3462
▁stat	-3463
▁bleeding	-3464
▁sang	-3465
▁metal	-3466
gue	-3467
▁kissing	-3468
▁50	-3469
▁tempt	-3470
▁spray	-3471
▁named	-3472
▁mm	-3473
▁bug	-3474
▁pig	-3475
▁bunch	-3476
▁tun	-3477
▁lake	-3478
▁raps	-3479
▁recognize	-3480
▁roam	-3481
▁greed	-3482
▁hardly	-3483
ense	-3484
oop	-3485
vation	-3486
▁willing	-3487
▁pool	-3488
▁throwing	-3489
ative	-3490
agne	-3491
▁drowning	-3492
▁proof	-3493
▁quarter	-3494
▁wrap	-3495
▁dey	-3496
▁burnin	-3497
▁lots	-3498
▁project	-3499
▁pair	-3500
▁resist	-3501
▁cruel	-3502
▁separ	-3503
▁phot	-3504
▁sober	-3505
▁comfort	-3506
hile	-3507
▁sees	-3508
▁months	-3509
▁rolled	-3510
▁covered	-3511
beat	-3512
▁lege	-3513
▁led	-3514
▁flood	-3515
▁sche	-3516
▁crit	-3517
▁fever	-3518
table	-3519
▁crawl	-3520
▁nuts	-3521
▁playa	-3522
fer	-3523
▁picked	-3524
▁weep	-3525
▁valley	-3526
▁natural	-3527
▁birthday	-3528
kest	-3529
▁map	-3530
▁addicted	-3531
▁surrender	-3532
▁romance	-3533
▁champagne	-3534
▁gather	-3535
▁guarant	-3536
anted	-3537
▁troubles	-3538
aches	-3539
▁sins	-3540
▁trade	-3541
▁note	-3542
unts	-3543
▁lear	-3544
▁tide	-3545
▁cond	-3546
▁sus	-3547
▁melody	-3548
box	-3549
ressed	-3550
▁desper	-3551
▁begging	-3552
▁accept	-3553
▁screen	-3554
▁perf	-3555
ived	-3556
ism	-3557
▁station	-3558
star	-3559
▁kings	-3560
▁sout	-3561
iction	-3562
▁clip	-3563
▁shooting	-3564
▁colle	-3565
▁whose	-3566
▁divine	-3567
ashion	-3568
▁touched	-3569
▁dise	-3570
▁surely	-3571
▁tar	-3572
▁hurting	-3573
▁dinner	-3574
ya	-3575
▁12	-3576
▁square	-3577
mmy	-3578
▁grows	-3579
▁squeeze	-3580
▁foreign	-3581
▁knowledge	-3582
▁throne	-3583
▁aren	-3584
▁speaking	-3585
▁trail	-3586
▁ped	-3587
iced	-3588
itate	-3589
damn	-3590
▁fading	-3591
▁innocent	-3592
▁echo	-3593
▁sharp	-3594
lon	-3595
▁brook	-3596
▁disco	-3597
▁fra	-3598
▁rece	-3599
dding	-3600
ert	-3601
▁further	-3602
▁shat	-3603
▁float	-3604
▁shift	-3605
▁nic	-3606
▁satisfied	-3607
▁stab	-3608
▁cocaine	-3609
▁reaching	-3610
▁begins	-3611
▁patience	-3612
▁yah	-3613
▁merry	-3614
▁sneak	-3615
▁vill	-3616
▁roads	-3617
▁ballin	-3618
▁mystery	-3619
ano	-3620
▁2:	-3621
▁rage	-3622
▁moments	-3623
▁emotions	-3624
▁owe	-3625
▁rear	-3626
vern	-3627
▁tattoo	-3628
thy	-3629
▁squad	-3630
ighs	-3631
▁group	-3632
▁disguise	-3633
▁leather	-3634
▁bubble	-3635
▁stones	-3636
▁pear	-3637
▁pon	-3638
▁thirst	-3639
ased	-3640
▁insp	-3641
hern	-3642
▁success	-3643
▁begun	-3644
▁slee	-3645
▁mal	-3646
▁pee	-3647
▁smash	-3648
▁showing	-3649
▁sour	-3650
▁shell	-3651
▁daily	-3652
▁punch	-3653
▁sty	-3654
nn	-3655
▁prov	-3656
▁lungs	-3657
▁cred	-3658
▁yell	-3659
▁earn	-3660
▁val	-3661
uit	-3662
▁common	-3663
▁pare	-3664
aded	-3665
▁shoulda	-3666
utch	-3667
▁bloody	-3668
▁thirty	-3669
▁40	-3670
▁bath	-3671
hered	-3672
▁sunny	-3673
▁missin	-3674
▁lightning	-3675
▁able	-3676
▁crim	-3677
▁purpose	-3678
▁holds	-3679
▁opened	-3680
▁drove	-3681
▁standin	-3682
▁1:	-3683
▁jung	-3684
ists	-3685
▁allow	-3686
▁soldiers	-3687
▁100	-3688
▁fiend	-3689
▁jay	-3690
▁began	-3691
▁shade	-3692
▁selling	-3693
▁yard	-3694
though	-3695
▁forty	-3696
▁candle	-3697
▁stands	-3698
▁warning	-3699
▁hatin	-3700
▁worked	-3701
▁uncle	-3702
▁tripping	-3703
▁trigger	-3704
▁apolog	-3705
▁fifty	-3706
▁brains	-3707
sess	-3708
▁comb	-3709
▁southern	-3710
gg	-3711
ville	-3712
▁ske	-3713
▁chrome	-3714
▁direction	-3715
▁scri	-3716
▁hotel	-3717
din	-3718
▁reck	-3719
▁ded	-3720
▁medic	-3721
▁suddenly	-3722
ility	-3723
▁simp	-3724
ached	-3725
▁proper	-3726
ob	-3727
itted	-3728
▁plays	-3729
▁polit	-3730
▁cam	-3731
▁embrace	-3732
lyn	-3733
▁kar	-3734
▁suicide	-3735
▁role	-3736
▁coat	-3737
ston	-3738
▁although	-3739
▁code	-3740
asses	-3741
▁monster	-3742
ific	-3743
board	-3744
▁louis	-3745
▁smack	-3746
rage	-3747
fo	-3748
▁chances	-3749
▁tennes	-3750
▁snap	-3751
ality	-3752
▁tot	-3753
ites	-3754
▁sup	-3755
cused	-3756
▁gay	-3757
▁bedroom	-3758
chie	-3759
▁waist	-3760
▁winds	-3761
▁teacher	-3762
aker	-3763
▁balls	-3764
▁produ	-3765
▁fashion	-3766
itive	-3767
▁rack	-3768
▁dies	-3769
▁size	-3770
▁apple	-3771
▁terror	-3772
▁lotta	-3773
▁ling	-3774
▁frozen	-3775
▁journey	-3776
▁fields	-3777
▁walks	-3778
▁plate	-3779
▁deg	-3780
▁melt	-3781
▁import	-3782
born	-3783
▁tennessee	-3784
▁ignor	-3785
▁meat	-3786
icious	-3787
▁+	-3788
play	-3789
▁heels	-3790
▁weren	-3791
▁dub	-3792
▁thy	-3793
▁shades	-3794
▁hollywood	-3795
▁pum	-3796
▁appro	-3797
nded	-3798
▁stomp	-3799
▁whist	-3800
▁haunt	-3801
▁mob	-3802
▁anger	-3803
▁suffer	-3804
▁hips	-3805
▁mike	-3806
▁iss	-3807
▁lap	-3808
▁jones	-3809
▁rope	-3810
▁shape	-3811
hest	-3812
▁matters	-3813
▁downtown	-3814
▁hopes	-3815
ita	-3816
▁slang	-3817
▁flower	-3818
ilty	-3819
▁wow	-3820
▁cure	-3821
eakers	-3822
▁foolish	-3823
▁floating	-3824
▁court	-3825
▁jungle	-3826
wards	-3827
girl	-3828
▁facts	-3829
▁tu	-3830
▁army	-3831
▁blown	-3832
▁orig	-3833
▁monday	-3834
ole	-3835
▁brick	-3836
▁vain	-3837
▁theyre	-3838
▁eag	-3839
▁attitude	-3840
▁hella	-3841
▁mask	-3842
▁tri	-3843
▁holes	-3844
▁gray	-3845
known	-3846
dest	-3847
▁ceiling	-3848
bbed	-3849
▁lin	-3850
▁rode	-3851
▁rout	-3852
nna	-3853
▁dice	-3854
▁collect	-3855
▁gate	-3856
▁tax	-3857
style	-3858
▁major	-3859
▁sipping	-3860
▁goodnight	-3861
▁puttin	-3862
▁choke	-3863
▁also	-3864
▁nervous	-3865
▁harm	-3866
▁bible	-3867
▁conversation	-3868
acy	-3869
▁adore	-3870
▁waking	-3871
ring	-3872
▁breakin	-3873
▁spittin	-3874
road	-3875
▁seed	-3876
▁stops	-3877
▁shoulders	-3878
▁hittin	-3879
▁liar	-3880
▁rust	-3881
▁score	-3882
▁hou	-3883
▁freaky	-3884
▁revolution	-3885
rel	-3886
▁wipe	-3887
▁rewind	-3888
▁finding	-3889
▁bast	-3890
▁vide	-3891
▁magn	-3892
▁guilty	-3893
▁crus	-3894
▁lang	-3895
▁goddamn	-3896
▁anytime	-3897
▁towards	-3898
nch	-3899
teen	-3900
▁mexic	-3901
enter	-3902
▁asha	-3903
▁sau	-3904
▁sevent	-3905
▁satan	-3906
▁selfish	-3907
iving	-3908
▁tricks	-3909
▁tit	-3910
▁sir	-3911
▁sunset	-3912
▁gy	-3913
▁abs	-3914
▁kingdom	-3915
▁impo	-3916
▁compet	-3917
house	-3918
ti	-3919
▁dun	-3920
ders	-3921
▁hearing	-3922
▁govern	-3923
▁mister	-3924
ware	-3925
▁stream	-3926
▁numbers	-3927
▁atl	-3928
▁clue	-3929
▁happening	-3930
▁lazy	-3931
▁virgin	-3932
▁celebrate	-3933
▁refuse	-3934
▁sinking	-3935
▁animal	-3936
▁rapping	-3937
ints	-3938
▁shel	-3939
▁gates	-3940
▁preacher	-3941
▁bord	-3942
▁remains	-3943
▁treasure	-3944
▁microphone	-3945
▁flies	-3946
▁works	-3947
▁drivin	-3948
▁simply	-3949
dered	-3950
nel	-3951
▁papa	-3952
olate	-3953
▁bricks	-3954
▁toe	-3955
▁camp	-3956
▁loaded	-3957
sters	-3958
▁couldnt	-3959
▁electric	-3960
-1	-3961
▁enter	-3962
▁unknown	-3963
▁temp	-3964
▁sav	-3965
▁james	-3966
▁ir	-3967
▁bun	-3968
action	-3969
▁ticket	-3970
▁pillow	-3971
▁pract	-3972
▁afford	-3973
▁bands	-3974
▁exper	-3975
▁captain	-3976
▁violence	-3977
▁crossed	-3978
▁sucker	-3979
▁wire	-3980
▁letters	-3981
▁idea	-3982
▁disease	-3983
ala	-3984
▁mall	-3985
▁cot	-3986
▁slam	-3987
▁resp	-3988
▁deliver	-3989
▁dim	-3990
icate	-3991
▁distant	-3992
▁strangers	-3993
▁kickin	-3994
▁killa	-3995
gen	-3996
yard	-3997
▁phys	-3998
▁blaze	-3999
▁poet	-4000
▁whatcha	-4001
▁dan	-4002
▁gee	-4003
umbling	-4004
▁rappin	-4005
▁cum	-4006
▁cous	-4007
raph	-4008
▁offer	-4009
▁brooklyn	-4010
▁position	-4011
▁chop	-4012
▁defin	-4013
▁stays	-4014
▁hardest	-4015
▁spending	-4016
inis	-4017
▁lyin	-4018
▁madness	-4019
▁circles	-4020
cin	-4021
llen	-4022
▁range	-4023
▁imm	-4024
▁packed	-4025
▁grin	-4026
▁grill	-4027
▁stair	-4028
zing	-4029
▁heartache	-4030
▁dome	-4031
▁false	-4032
▁due	-4033
▁weeks	-4034
▁cute	-4035
▁sens	-4036
▁pad	-4037
▁surpri	-4038
▁corp	-4039
▁rainbow	-4040
▁dawg	-4041
▁dreamed	-4042
▁public	-4043
▁keepin	-4044
hip	-4045
▁occ	-4046
▁religion	-4047
▁univer	-4048
sec	-4049
▁ours	-4050
arm	-4051
▁ashamed	-4052
▁legend	-4053
▁smiles	-4054
▁fag	-4055
▁savior	-4056
▁learning	-4057
ica	-4058
▁shook	-4059
val	-4060
gia	-4061
liness	-4062
▁shock	-4063
▁!	-4064
▁autom	-4065
////	-4066
▁reign	-4067
yo	-4068
illac	-4069
▁stacks	-4070
▁rug	-4071
▁plot	-4072
▁holiday	-4073
▁wedding	-4074
vious	-4075
vest	-4076
▁loss	-4077
▁blaz	-4078
itation	-4079
▁hopeless	-4080
▁pace	-4081
▁aside	-4082
▁strings	-4083
iting	-4084
com	-4085
zed	-4086
▁vers	-4087
▁tast	-4088
▁advice	-4089
▁dogg	-4090
▁worlds	-4091
▁sacrifice	-4092
cent	-4093
▁luc	-4094
▁hidden	-4095
▁boyfriend	-4096
▁universe	-4097
rop	-4098
▁porch	-4099
ppers	-4100
▁focused	-4101
▁lyrical	-4102
▁lee	-4103
▁parents	-4104
▁seas	-4105
▁popping	-4106
▁cadillac	-4107
istic	-4108
anta	-4109
▁serv	-4110
▁believing	-4111
▁sack	-4112
▁monkey	-4113
▁college	-4114
▁stomach	-4115
▁spitting	-4116
▁plastic	-4117
▁tank	-4118
▁waters	-4119
▁curtain	-4120
load	-4121
walk	-4122
▁milk	-4123
▁norm	-4124
▁pouring	-4125
▁dump	-4126
▁clique	-4127
▁fancy	-4128
rete	-4129
▁port	-4130
▁erase	-4131
ino	-4132
▁winning	-4133
▁knocking	-4134
▁laughter	-4135
imate	-4136
▁kicked	-4137
▁tag	-4138
▁prince	-4139
▁important	-4140
▁reflect	-4141
▁ai	-4142
eeee	-4143
▁24	-4144
▁vol	-4145
▁deck	-4146
▁recall	-4147
▁booth	-4148
▁board	-4149
▁believed	-4150
▁hotter	-4151
▁joint	-4152
▁ep	-4153
▁screamin	-4154
▁hype	-4155
▁wisdom	-4156
▁command	-4157
▁intent	-4158
chu	-4159
▁talked	-4160
ival	-4161
gan	-4162
▁swit	-4163
▁ray	-4164
▁snake	-4165
ulture	-4166
▁toss	-4167
▁solo	-4168
▁kicks	-4169
▁carol	-4170
▁intern	-4171
▁brighter	-4172
reme	-4173
sey	-4174
oking	-4175
▁heartbeat	-4176
rect	-4177
▁offic	-4178
▁dreamin	-4179
ened	-4180
▁rolls	-4181
▁cage	-4182
quer	-4183
respect	-4184
▁nick	-4185
atinum	-4186
▁holler	-4187
▁careful	-4188
ims	-4189
▁slap	-4190
▁bi	-4191
▁slick	-4192
▁freeze	-4193
▁blessing	-4194
issed	-4195
ffect	-4196
▁rebel	-4197
▁fare	-4198
▁dive	-4199
▁reminis	-4200
▁domin	-4201
▁soci	-4202
▁marry	-4203
▁palm	-4204
▁slipping	-4205
▁sunrise	-4206
▁flee	-4207
▁center	-4208
▁neon	-4209
▁presence	-4210
rd	-4211
ceed	-4212
▁damned	-4213
▁knocked	-4214
▁cali	-4215
▁chips	-4216
miss	-4217
▁sings	-4218
▁instru	-4219
▁lim	-4220
▁private	-4221
▁buddy	-4222
▁platinum	-4223
ration	-4224
ours	-4225
▁compare	-4226
▁finished	-4227
▁sword	-4228
▁wed	-4229
▁max	-4230
▁fought	-4231
▁rubber	-4232
▁himself	-4233
ooo	-4234
▁county	-4235
▁sway	-4236
like	-4237
▁shotgun	-4238
▁shr	-4239
▁aver	-4240
▁cuts	-4241
▁od	-4242
▁billy	-4243
▁biggest	-4244
▁tang	-4245
▁saving	-4246
▁leads	-4247
▁relation	-4248
▁habit	-4249
▁ber	-4250
▁stock	-4251
wa	-4252
▁langu	-4253
▁miracle	-4254
▁dash	-4255
▁blink	-4256
▁woods	-4257
▁mothafuck	-4258
▁eternal	-4259
▁drain	-4260
▁ak	-4261
eral	-4262
ingle	-4263
▁angry	-4264
▁kicking	-4265
▁naw	-4266
▁pimpin	-4267
fall	-4268
xy	-4269
▁string	-4270
▁pave	-4271
▁agree	-4272
▁queens	-4273
▁charge	-4274
▁horses	-4275
▁preach	-4276
▁honor	-4277
▁fright	-4278
▁impossible	-4279
▁weapon	-4280
▁ayo	-4281
cient	-4282
▁moan	-4283
▁fortune	-4284
▁bold	-4285
▁appre	-4286
▁turnin	-4287
▁rus	-4288
▁drip	-4289
ado	-4290
▁books	-4291
▁shower	-4292
▁rude	-4293
▁tone	-4294
▁frank	-4295
▁seeds	-4296
urb	-4297
▁hitting	-4298
▁mixed	-4299
▁weary	-4300
▁model	-4301
▁colder	-4302
▁chem	-4303
▁trynna	-4304
stal	-4305
▁chew	-4306
▁couch	-4307
▁demand	-4308
ope	-4309
▁label	-4310
aul	-4311
acked	-4312
ifth	-4313
iliar	-4314
▁heartbreak	-4315
▁roots	-4316
▁indust	-4317
▁rare	-4318
ius	-4319
▁magaz	-4320
▁swimming	-4321
ped	-4322
▁kush	-4323
▁damage	-4324
band	-4325
▁30	-4326
▁disrespect	-4327
▁thou	-4328
▁georgia	-4329
urs	-4330
▁mane	-4331
▁gor	-4332
▁sides	-4333
▁est	-4334
▁weve	-4335
▁eternity	-4336
▁pipe	-4337
▁effect	-4338
▁regrets	-4339
hhh	-4340
▁painted	-4341
rain	-4342
▁inner	-4343
▁biz	-4344
pha	-4345
hen	-4346
▁tan	-4347
▁ended	-4348
ures	-4349
cri	-4350
eared	-4351
▁engine	-4352
▁parts	-4353
rated	-4354
ral	-4355
▁surprised	-4356
olved	-4357
ien	-4358
▁belly	-4359
▁stepped	-4360
▁pops	-4361
▁hater	-4362
▁twelve	-4363
ras	-4364
▁jane	-4365
▁shoe	-4366
▁alc	-4367
▁heavens	-4368
▁pant	-4369
uring	-4370
▁hunger	-4371
▁risk	-4372
▁salt	-4373
clock	-4374
▁government	-4375
▁afric	-4376
▁stopping	-4377
▁visions	-4378
▁chilling	-4379
ession	-4380
▁infin	-4381
▁jimmy	-4382
▁concrete	-4383
▁raz	-4384
▁darkest	-4385
▁throwin	-4386
▁amb	-4387
▁overd	-4388
▁ancient	-4389
▁drops	-4390
▁cart	-4391
▁studio	-4392
▁liked	-4393
▁cigarette	-4394
don	-4395
▁fer	-4396
▁choc	-4397
ents	-4398
itter	-4399
▁planned	-4400
pa	-4401
▁tho	-4402
▁using	-4403
▁sets	-4404
▁afterno	-4405
▁log	-4406
▁camera	-4407
▁weal	-4408
ior	-4409
lled	-4410
ured	-4411
▁pushed	-4412
▁strapped	-4413
▁pole	-4414
▁washed	-4415
▁lion	-4416
zzy	-4417
▁faithful	-4418
▁daylight	-4419
▁solid	-4420
athy	-4421
▁summertime	-4422
▁dot	-4423
▁ree	-4424
▁easier	-4425
▁telephone	-4426
▁easily	-4427
fly	-4428
vity	-4429
▁neighborhood	-4430
wor	-4431
▁whore	-4432
▁figured	-4433
cue	-4434
▁event	-4435
ato	-4436
ondon	-4437
▁appear	-4438
nam	-4439
▁wolf	-4440
▁nar	-4441
ette	-4442
ohol	-4443
▁beep	-4444
gas	-4445
▁pity	-4446
ograph	-4447
▁shakin	-4448
▁victory	-4449
ulate	-4450
▁beam	-4451
▁dod	-4452
▁beha	-4453
▁messed	-4454
ees	-4455
▁mail	-4456
▁average	-4457
▁touching	-4458
▁credit	-4459
▁image	-4460
▁carried	-4461
000	-4462
▁aud	-4463
▁reached	-4464
▁wore	-4465
▁separate	-4466
▁london	-4467
lers	-4468
▁shady	-4469
▁desperate	-4470
▁askin	-4471
hael	-4472
▁sadness	-4473
▁honky	-4474
▁skills	-4475
▁knowin	-4476
▁tom	-4477
▁spine	-4478
▁jumped	-4479
step	-4480
▁loyal	-4481
boys	-4482
▁ringing	-4483
▁original	-4484
▁frontin	-4485
▁seconds	-4486
▁entertain	-4487
▁spee	-4488
▁gin	-4489
▁floss	-4490
▁saint	-4491
▁chosen	-4492
▁ec	-4493
ivers	-4494
▁stretch	-4495
▁ooooh	-4496
▁disg	-4497
▁language	-4498
mes	-4499
▁thrown	-4500
▁loneliness	-4501
▁cann	-4502
stick	-4503
▁create	-4504
▁sire	-4505
▁honestly	-4506
▁um	-4507
▁commun	-4508
▁slim	-4509
▁script	-4510
iment	-4511
▁blunts	-4512
ding	-4513
▁sheep	-4514
▁laughed	-4515
▁personal	-4516
gon	-4517
▁sending	-4518
▁suppose	-4519
▁torture	-4520
▁ruin	-4521
▁jewel	-4522
▁flowing	-4523
▁picking	-4524
▁blocks	-4525
ec	-4526
antic	-4527
▁cheat	-4528
▁dread	-4529
▁louder	-4530
▁skip	-4531
▁liber	-4532
▁lamb	-4533
▁junk	-4534
▁cotton	-4535
▁boun	-4536
azz	-4537
▁hopin	-4538
▁crooked	-4539
fast	-4540
cially	-4541
▁fruit	-4542
ening	-4543
▁sisters	-4544
▁thighs	-4545
duc	-4546
▁feather	-4547
▁deb	-4548
▁nuh	-4549
▁psych	-4550
▁large	-4551
▁bored	-4552
▁bail	-4553
▁hypnot	-4554
▁burst	-4555
▁suckers	-4556
▁una	-4557
▁reven	-4558
▁jumping	-4559
▁frown	-4560
▁betray	-4561
▁replace	-4562
▁alcohol	-4563
▁ego	-4564
▁direct	-4565
▁chasin	-4566
▁comfor	-4567
isin	-4568
▁video	-4569
▁border	-4570
▁host	-4571
▁blur	-4572
▁doub	-4573
▁blade	-4574
▁spo	-4575
▁sweeter	-4576
▁slept	-4577
got	-4578
▁warri	-4579
▁usually	-4580
▁michael	-4581
▁society	-4582
▁lab	-4583
kind	-4584
▁jah	-4585
▁chat	-4586
▁rider	-4587
▁industry	-4588
otic	-4589
▁cau	-4590
amer	-4591
▁ate	-4592
▁ram	-4593
▁becomes	-4594
pet	-4595
▁wasnt	-4596
▁wouldnt	-4597
▁drifting	-4598
▁harmon	-4599
▁justice	-4600
▁fav	-4601
▁restless	-4602
▁haze	-4603
▁tiny	-4604
▁flu	-4605
▁voc	-4606
▁reap	-4607
▁fifth	-4608
▁closing	-4609
▁pale	-4610
▁march	-4611
▁seasons	-4612
lie	-4613
who	-4614
▁fog	-4615
▁fellas	-4616
▁softly	-4617
▁created	-4618
▁generation	-4619
ari	-4620
rer	-4621
▁hooked	-4622
▁afternoon	-4623
asp	-4624
core	-4625
▁gots	-4626
ruction	-4627
▁depend	-4628
▁reckless	-4629
▁pissed	-4630
▁shelter	-4631
▁worries	-4632
irs	-4633
ishing	-4634
▁dropping	-4635
▁opt	-4636
ading	-4637
lect	-4638
▁forest	-4639
obe	-4640
▁hush	-4641
▁nails	-4642
▁shinin	-4643
▁sons	-4644
▁18	-4645
▁hus	-4646
aring	-4647
▁bond	-4648
▁bustin	-4649
▁borrow	-4650
▁violent	-4651
▁triple	-4652
▁visit	-4653
▁stumble	-4654
▁backwards	-4655
▁wander	-4656
▁familiar	-4657
▁wounds	-4658
▁catching	-4659
▁chin	-4660
▁competition	-4661
▁horiz	-4662
▁quickly	-4663
▁infl	-4664
▁oppos	-4665
▁zero	-4666
▁trace	-4667
▁obvious	-4668
▁mort	-4669
▁sla	-4670
▁intell	-4671
▁cared	-4672
▁health	-4673
▁chuck	-4674
▁doesnt	-4675
▁traffic	-4676
vies	-4677
▁bid	-4678
▁worship	-4679
▁eve	-4680
▁losin	-4681
▁fucker	-4682
▁thangs	-4683
▁cherry	-4684
▁appreci	-4685
ram	-4686
haha	-4687
▁cousin	-4688
▁threat	-4689
▁scare	-4690
▁convin	-4691
▁coz	-4692
▁oper	-4693
▁bombs	-4694
▁bucks	-4695
▁sixteen	-4696
ham	-4697
▁interest	-4698
▁wid	-4699
▁rail	-4700
eous	-4701
cuz	-4702
▁mars	-4703
▁skinny	-4704
po	-4705
bbin	-4706
▁dyin	-4707
▁conta	-4708
▁raining	-4709
▁cruise	-4710
▁realized	-4711
vis	-4712
▁inna	-4713
▁glor	-4714
▁fence	-4715
▁stall	-4716
▁jewels	-4717
▁express	-4718
▁defeat	-4719
____	-4720
ums	-4721
▁whoever	-4722
▁plug	-4723
▁measure	-4724
▁artist	-4725
▁whistle	-4726
▁maintain	-4727
▁breed	-4728
fire	-4729
irts	-4730
gress	-4731
▁shared	-4732
cket	-4733
▁screams	-4734
rupt	-4735
▁tearing	-4736
▁sunlight	-4737
▁hurric	-4738
▁phil	-4739
roll	-4740
nding	-4741
▁sake	-4742
▁naught	-4743
uce	-4744
▁reflection	-4745
▁1,	-4746
▁aven	-4747
oe	-4748
▁prepared	-4749
▁following	-4750
▁swer	-4751
▁pause	-4752
▁sweetest	-4753
▁whos	-4754
▁prayers	-4755
▁yay	-4756
▁weird	-4757
▁heavenly	-4758
▁backs	-4759
▁themselves	-4760
▁sleepin	-4761
pr	-4762
▁inch	-4763
▁upside	-4764
▁ecst	-4765
▁speech	-4766
▁suffering	-4767
▁digging	-4768
▁tips	-4769
▁flyin	-4770
▁crawling	-4771
▁cuff	-4772
▁ann	-4773
▁emc	-4774
▁rains	-4775
▁pard	-4776
▁speakers	-4777
▁runa	-4778
▁molly	-4779
▁medicine	-4780
▁moms	-4781
lights	-4782
▁cheer	-4783
▁pullin	-4784
hole	-4785
▁laws	-4786
▁hail	-4787
▁descri	-4788
▁avo	-4789
▁crashing	-4790
uts	-4791
▁dial	-4792
▁deadly	-4793
▁pretending	-4794
▁tore	-4795
▁slay	-4796
▁pounds	-4797
izing	-4798
away	-4799
▁fades	-4800
▁mult	-4801
▁oil	-4802
▁smoked	-4803
bie	-4804
anes	-4805
▁lau	-4806
▁gram	-4807
▁worn	-4808
▁prime	-4809
▁undone	-4810
▁dealing	-4811
▁cong	-4812
▁youd	-4813
▁ghosts	-4814
▁granted	-4815
▁nerve	-4816
▁thumb	-4817
case	-4818
▁product	-4819
▁confusion	-4820
gl	-4821
▁seein	-4822
lem	-4823
▁gyal	-4824
▁greater	-4825
hem	-4826
otion	-4827
▁fuss	-4828
rops	-4829
▁brag	-4830
▁coupe	-4831
▁mommy	-4832
▁clearly	-4833
five	-4834
▁vest	-4835
▁surface	-4836
▁movies	-4837
lev	-4838
▁jord	-4839
▁automatic	-4840
icy	-4841
verse	-4842
eg	-4843
bound	-4844
▁grain	-4845
▁shelf	-4846
▁neighbors	-4847
▁spare	-4848
pro	-4849
ortun	-4850
▁paying	-4851
▁cigarettes	-4852
▁flick	-4853
▁spoken	-4854
ilin	-4855
nage	-4856
di	-4857
▁doe	-4858
▁signed	-4859
▁humble	-4860
gest	-4861
▁intentions	-4862
▁rick	-4863
▁span	-4864
▁flavor	-4865
▁riches	-4866
▁stash	-4867
vid	-4868
▁sleeve	-4869
pecially	-4870
▁heading	-4871
▁shootin	-4872
▁breakfast	-4873
▁net	-4874
▁chocolate	-4875
▁drives	-4876
zzle	-4877
▁guts	-4878
▁cus	-4879
▁toy	-4880
▁followed	-4881
▁farm	-4882
▁baddest	-4883
▁chevy	-4884
iac	-4885
itches	-4886
ju	-4887
▁rocket	-4888
▁decided	-4889
ser	-4890
▁ci	-4891
▁scat	-4892
▁based	-4893
▁orle	-4894
▁lemon	-4895
aming	-4896
▁layin	-4897
▁py	-4898
last	-4899
▁actually	-4900
▁innocence	-4901
▁surrounded	-4902
cience	-4903
▁lunch	-4904
▁continue	-4905
▁snatch	-4906
▁flew	-4907
▁cheek	-4908
▁techn	-4909
▁plant	-4910
▁runaway	-4911
▁rights	-4912
▁sweetheart	-4913
▁bliss	-4914
▁hated	-4915
▁pic	-4916
▁savage	-4917
▁cruc	-4918
▁affair	-4919
▁notes	-4920
▁needle	-4921
▁sweep	-4922
itions	-4923
▁oughta	-4924
▁killers	-4925
▁fir	-4926
▁longing	-4927
▁knockin	-4928
▁younger	-4929
▁understood	-4930
ami	-4931
rent	-4932
▁orleans	-4933
▁eatin	-4934
▁homes	-4935
▁slippin	-4936
▁steppin	-4937
▁royal	-4938
▁support	-4939
▁oak	-4940
ights	-4941
▁goal	-4942
▁pardon	-4943
▁rivers	-4944
▁parking	-4945
▁prepare	-4946
pers	-4947
▁doom	-4948
▁pages	-4949
▁completely	-4950
sses	-4951
▁hunt	-4952
▁temper	-4953
▁blinded	-4954
▁bop	-4955
▁sort	-4956
rible	-4957
▁penny	-4958
▁prayed	-4959
▁dang	-4960
▁awa	-4961
bage	-4962
▁hatred	-4963
▁sellin	-4964
▁bae	-4965
bby	-4966
▁amen	-4967
▁criminal	-4968
▁imagination	-4969
▁lifted	-4970
▁naughty	-4971
▁strap	-4972
▁uptown	-4973
▁revenge	-4974
ences	-4975
▁crystal	-4976
col	-4977
▁righteous	-4978
▁bush	-4979
▁freaks	-4980
▁link	-4981
▁dues	-4982
▁rescue	-4983
▁setting	-4984
ona	-4985
▁bumpin	-4986
▁droppin	-4987
▁ole	-4988
▁stepping	-4989
ieve	-4990
oy	-4991
▁q	-4992
▁winner	-4993
▁target	-4994
just	-4995
▁offe	-4996
▁sacred	-4997
▁tooth	-4998
aw	-4999
ulous	-5000
▁bark	-5001
▁jackson	-5002
▁shack	-5003
▁swore	-5004
▁instrument	-5005
▁ordin	-5006
▁pushin	-5007
▁wealth	-5008
▁lessons	-5009
▁pred	-5010
hoo	-5011
▁classic	-5012
▁cave	-5013
▁16	-5014
▁educ	-5015
▁groo	-5016
▁fights	-5017
▁neither	-5018
rat	-5019
top	-5020
▁feds	-5021
▁sticks	-5022
▁glove	-5023
▁talks	-5024
▁mour	-5025
▁core	-5026
aus	-5027
▁tend	-5028
▁wing	-5029
▁scot	-5030
▁gall	-5031
▁outla	-5032
▁racing	-5033
▁wishin	-5034
▁commit	-5035
▁wars	-5036
▁grade	-5037
▁checks	-5038
▁pul	-5039
▁belt	-5040
▁cris	-5041
▁motor	-5042
▁snakes	-5043
▁skill	-5044
▁stere	-5045
▁ting	-5046
▁kin	-5047
inted	-5048
▁healing	-5049
▁awhile	-5050
sion	-5051
epend	-5052
▁lull	-5053
pel	-5054
▁button	-5055
▁stroke	-5056
▁ry	-5057
▁capture	-5058
▁sed	-5059
▁modern	-5060
ex	-5061
▁fema	-5062
▁eff	-5063
▁fiends	-5064
▁approach	-5065
▁millions	-5066
▁fet	-5067
▁copy	-5068
ila	-5069
sen	-5070
▁---	-5071
bal	-5072
▁failed	-5073
▁fantas	-5074
▁nearly	-5075
▁ordinary	-5076
▁shattered	-5077
berry	-5078
urity	-5079
▁aware	-5080
▁practice	-5081
▁especially	-5082
hale	-5083
bbing	-5084
▁courage	-5085
iger	-5086
▁heroes	-5087
▁rounds	-5088
umn	-5089
work	-5090
▁gravity	-5091
▁herself	-5092
cos	-5093
gate	-5094
▁ger	-5095
▁salvation	-5096
▁conscience	-5097
asing	-5098
real	-5099
▁fightin	-5100
▁partner	-5101
▁21	-5102
lock	-5103
af	-5104
book	-5105
▁jaw	-5106
▁bling	-5107
▁leading	-5108
ago	-5109
▁bobby	-5110
isions	-5111
▁memph	-5112
▁ripped	-5113
bid	-5114
▁drums	-5115
▁constantly	-5116
▁ash	-5117
▁rome	-5118
▁local	-5119
tery	-5120
▁swinging	-5121
▁len	-5122
▁poss	-5123
▁80	-5124
▁sting	-5125
▁concer	-5126
▁paul	-5127
▁stoned	-5128
▁danced	-5129
▁itself	-5130
▁potent	-5131
▁horizon	-5132
▁nas	-5133
▁skull	-5134
▁movement	-5135
view	-5136
▁aband	-5137
▁players	-5138
▁cutting	-5139
bird	-5140
▁foul	-5141
sl	-5142
▁loot	-5143
flies	-5144
▁blessings	-5145
▁hurricane	-5146
▁leader	-5147
▁decision	-5148
lines	-5149
▁batt	-5150
▁empt	-5151
off	-5152
▁budd	-5153
▁beware	-5154
▁'9	-5155
▁awful	-5156
▁sniff	-5157
▁hay	-5158
▁roller	-5159
pton	-5160
▁tease	-5161
▁impress	-5162
▁wax	-5163
▁explode	-5164
▁villain	-5165
▁breast	-5166
▁coo	-5167
▁buying	-5168
▁sinner	-5169
▁bringin	-5170
rees	-5171
cker	-5172
iiii	-5173
▁involved	-5174
▁stolen	-5175
▁jingle	-5176
▁wishes	-5177
▁mast	-5178
mos	-5179
ippi	-5180
▁kills	-5181
▁independ	-5182
▁affection	-5183
stand	-5184
oured	-5185
▁kissin	-5186
▁smiled	-5187
▁cd	-5188
▁jumpin	-5189
stone	-5190
▁cracks	-5191
▁ninety	-5192
▁mississ	-5193
lish	-5194
▁clever	-5195
▁spinnin	-5196
▁mater	-5197
▁climbing	-5198
▁ding	-5199
▁stairs	-5200
▁puts	-5201
▁charm	-5202
ronic	-5203
▁paris	-5204
▁covers	-5205
port	-5206
▁whoo	-5207
-4	-5208
▁15	-5209
▁balance	-5210
▁bastard	-5211
▁toys	-5212
▁bike	-5213
▁motiv	-5214
str	-5215
▁guarantee	-5216
▁escap	-5217
esome	-5218
ication	-5219
▁account	-5220
▁orange	-5221
aah	-5222
▁wu	-5223
▁viol	-5224
▁rainy	-5225
mi	-5226
▁bangin	-5227
ease	-5228
olves	-5229
▁stealing	-5230
ara	-5231
▁mari	-5232
▁reveal	-5233
▁mexico	-5234
▁relate	-5235
▁december	-5236
▁coal	-5237
▁eagle	-5238
▁indeed	-5239
▁treated	-5240
▁dah	-5241
▁alley	-5242
▁drawn	-5243
▁popped	-5244
mble	-5245
▁uns	-5246
▁unfold	-5247
▁styles	-5248
▁der	-5249
▁ugh	-5250
▁funeral	-5251
▁chris	-5252
▁lower	-5253
▁stray	-5254
▁invest	-5255
▁slipped	-5256
▁thirsty	-5257
▁bathroom	-5258
▁belongs	-5259
▁obl	-5260
▁purs	-5261
▁creature	-5262
▁rims	-5263
▁nicke	-5264
▁mothers	-5265
▁basement	-5266
▁weakness	-5267
▁mend	-5268
▁grinding	-5269
ivid	-5270
▁prize	-5271
▁broads	-5272
▁ecstasy	-5273
▁illusion	-5274
▁fid	-5275
▁fairy	-5276
ception	-5277
orts	-5278
rant	-5279
▁scra	-5280
▁blank	-5281
ears	-5282
▁panic	-5283
▁memphis	-5284
alal	-5285
inate	-5286
▁blah	-5287
▁forced	-5288
▁gle	-5289
▁hee	-5290
▁mississippi	-5291
▁upset	-5292
▁attract	-5293
▁ult	-5294
▁razor	-5295
▁stoppin	-5296
▁closet	-5297
▁highest	-5298
flow	-5299
▁gear	-5300
▁prolly	-5301
▁glasses	-5302
hal	-5303
▁rabb	-5304
▁ups	-5305
field	-5306
plex	-5307
▁insec	-5308
gers	-5309
alest	-5310
▁balling	-5311
▁temptation	-5312
erk	-5313
▁frag	-5314
▁opin	-5315
▁eg	-5316
▁burnt	-5317
▁snitch	-5318
▁regular	-5319
oming	-5320
iration	-5321
▁showin	-5322
▁seats	-5323
seng	-5324
▁grad	-5325
▁sigh	-5326
▁racks	-5327
▁finest	-5328
▁grandma	-5329
ios	-5330
bels	-5331
▁tat	-5332
▁ties	-5333
▁symp	-5334
▁helped	-5335
▁incred	-5336
bing	-5337
▁fart	-5338
▁talent	-5339
▁realest	-5340
▁satisfy	-5341
▁perform	-5342
▁issues	-5343
what	-5344
ators	-5345
▁hustler	-5346
▁fills	-5347
▁jock	-5348
▁traged	-5349
▁nap	-5350
ste	-5351
▁lam	-5352
▁july	-5353
▁messing	-5354
▁brush	-5355
nah	-5356
pest	-5357
▁appl	-5358
▁cust	-5359
▁tomb	-5360
▁spirits	-5361
▁projects	-5362
▁greet	-5363
empl	-5364
▁11	-5365
bered	-5366
vision	-5367
▁shove	-5368
ula	-5369
▁devils	-5370
▁ny	-5371
▁ink	-5372
sty	-5373
▁forgiveness	-5374
▁route	-5375
▁possess	-5376
▁appreciate	-5377
▁burden	-5378
mission	-5379
▁pile	-5380
▁finds	-5381
▁divide	-5382
▁grabbed	-5383
▁bore	-5384
▁blond	-5385
▁sore	-5386
▁destruction	-5387
mar	-5388
▁mines	-5389
▁apologize	-5390
hey	-5391
▁hesitate	-5392
pered	-5393
▁positive	-5394
ances	-5395
▁riot	-5396
▁delight	-5397
za	-5398
▁needing	-5399
▁physical	-5400
▁equal	-5401
▁scary	-5402
▁social	-5403
dream	-5404
▁chief	-5405
▁henny	-5406
▁lace	-5407
▁david	-5408
▁whine	-5409
▁gangster	-5410
know	-5411
▁vegas	-5412
▁fox	-5413
isible	-5414
▁clips	-5415
▁organ	-5416
▁han	-5417
▁french	-5418
▁pier	-5419
▁facing	-5420
▁stressed	-5421
▁behold	-5422
now	-5423
▁noticed	-5424
▁reading	-5425
▁jar	-5426
▁pitch	-5427
▁shown	-5428
▁cancer	-5429
▁possible	-5430
▁ace	-5431
lor	-5432
ued	-5433
▁meth	-5434
▁cub	-5435
▁mami	-5436
▁corners	-5437
▁searchin	-5438
▁muthafuckin	-5439
lfill	-5440
▁juke	-5441
▁meal	-5442
--------	-5443
▁whispers	-5444
-2	-5445
▁ax	-5446
▁fred	-5447
▁sticky	-5448
▁receive	-5449
▁arrow	-5450
▁trill	-5451
▁driver	-5452
▁stink	-5453
▁phase	-5454
▁conquer	-5455
▁seventeen	-5456
▁jap	-5457
▁complicated	-5458
▁science	-5459
bon	-5460
▁pil	-5461
▁pose	-5462
▁duke	-5463
▁chap	-5464
▁elev	-5465
▁lex	-5466
▁whack	-5467
▁service	-5468
▁cling	-5469
hel	-5470
▁waits	-5471
▁wearin	-5472
▁harmony	-5473
▁laughin	-5474
▁bron	-5475
but	-5476
▁roo	-5477
▁regard	-5478
▁wonderin	-5479
▁coulda	-5480
▁jacket	-5481
▁challen	-5482
▁culture	-5483
reek	-5484
▁coffin	-5485
pie	-5486
▁shopping	-5487
***	-5488
eet	-5489
▁vacation	-5490
▁understanding	-5491
▁root	-5492
▁george	-5493
two	-5494
▁hu	-5495
▁chaos	-5496
▁conscious	-5497
run	-5498
gram	-5499
▁loser	-5500
▁claus	-5501
▁fully	-5502
▁steam	-5503
▁excited	-5504
▁dut	-5505
▁fab	-5506
▁flock	-5507
raction	-5508
▁consider	-5509
▁helpless	-5510
▁yup	-5511
▁psycho	-5512
▁nike	-5513
▁panties	-5514
▁2,	-5515
▁goose	-5516
▁worthy	-5517
▁peter	-5518
▁priest	-5519
rid	-5520
▁actions	-5521
▁checking	-5522
▁princess	-5523
lle	-5524
▁hah	-5525
ulation	-5526
▁las	-5527
▁tab	-5528
▁jerk	-5529
▁limb	-5530
▁solve	-5531
▁autumn	-5532
▁papers	-5533
▁listened	-5534
▁wiz	-5535
rors	-5536
ational	-5537
▁deaf	-5538
▁foo	-5539
▁frust	-5540
▁husband	-5541
shot	-5542
▁candles	-5543
▁alot	-5544
▁lime	-5545
▁barrel	-5546
▁rides	-5547
▁socks	-5548
▁vibes	-5549
▁total	-5550
▁jen	-5551
▁dragon	-5552
bu	-5553
▁jus	-5554
▁comfortable	-5555
▁envy	-5556
▁gamb	-5557
▁mum	-5558
▁straw	-5559
▁slaughter	-5560
▁stayin	-5561
▁charlie	-5562
▁hurtin	-5563
pher	-5564
shirt	-5565
▁peak	-5566
▁bloom	-5567
▁adm	-5568
aries	-5569
▁depth	-5570
▁despair	-5571
▁career	-5572
▁lighter	-5573
sessed	-5574
▁decay	-5575
▁everlast	-5576
▁dripping	-5577
▁lettin	-5578
stas	-5579
▁useless	-5580
isher	-5581
▁bridges	-5582
▁dimes	-5583
▁nuttin	-5584
▁parano	-5585
▁creeping	-5586
▁fires	-5587
▁awesome	-5588
itely	-5589
▁invisible	-5590
▁tony	-5591
▁existence	-5592
▁dove	-5593
▁avenue	-5594
▁tries	-5595
▁jigg	-5596
▁react	-5597
▁anx	-5598
▁degree	-5599
▁gaze	-5600
▁caused	-5601
▁tragedy	-5602
▁normal	-5603
▁flashing	-5604
▁gyps	-5605
▁bowl	-5606
▁grim	-5607
amble	-5608
▁teen	-5609
▁possib	-5610
▁relationship	-5611
▁isnt	-5612
▁maker	-5613
ki	-5614
▁ounce	-5615
▁hustlin	-5616
cover	-5617
▁abuse	-5618
▁jealousy	-5619
▁material	-5620
ruct	-5621
▁june	-5622
▁spaces	-5623
.'	-5624
▁struck	-5625
▁vicious	-5626
life	-5627
▁chi	-5628
▁crook	-5629
▁surf	-5630
▁guilt	-5631
▁woulda	-5632
▁bride	-5633
▁jordan	-5634
ida	-5635
oms	-5636
▁verses	-5637
▁amount	-5638
okin	-5639
▁bucket	-5640
▁gats	-5641
▁thief	-5642
▁banging	-5643
▁vet	-5644
oline	-5645
▁tower	-5646
▁bluff	-5647
▁troubled	-5648
▁leaf	-5649
▁collar	-5650
▁creation	-5651
▁buff	-5652
chorus	-5653
idal	-5654
▁math	-5655
▁boring	-5656
▁lipstick	-5657
▁miami	-5658
▁status	-5659
▁lawn	-5660
▁stir	-5661
▁rotten	-5662
▁sym	-5663
alent	-5664
ister	-5665
▁belief	-5666
▁gutter	-5667
▁perfume	-5668
▁slice	-5669
▁hardcore	-5670
eyed	-5671
▁emer	-5672
▁mansion	-5673
▁sale	-5674
▁sits	-5675
▁thorn	-5676
▁diggin	-5677
▁fifteen	-5678
▁incredible	-5679
▁fulfill	-5680
wide	-5681
▁karma	-5682
▁brew	-5683
▁snoop	-5684
list	-5685
▁strikes	-5686
phere	-5687
iter	-5688
▁fucks	-5689
▁daydream	-5690
▁disaster	-5691
east	-5692
▁mash	-5693
▁rocky	-5694
▁yelling	-5695
▁counter	-5696
▁gently	-5697
▁indian	-5698
▁odds	-5699
▁void	-5700
▁cities	-5701
▁slight	-5702
▁hometown	-5703
▁destination	-5704
▁traveling	-5705
▁tool	-5706
▁prayin	-5707
▁comprom	-5708
rence	-5709
▁blan	-5710
▁vow	-5711
using	-5712
▁tires	-5713
▁cracked	-5714
▁gentlemen	-5715
-5	-5716
▁pip	-5717
▁superstar	-5718
▁phant	-5719
▁rand	-5720
▁hound	-5721
▁chronic	-5722
stic	-5723
▁lawy	-5724
▁trucks	-5725
▁decisions	-5726
▁opportun	-5727
▁nowad	-5728
▁martin	-5729
▁weapons	-5730
▁farewell	-5731
▁trag	-5732
▁alarm	-5733
▁chedd	-5734
▁spite	-5735
▁speaks	-5736
▁mics	-5737
unting	-5738
▁cough	-5739
▁introdu	-5740
sha	-5741
▁deter	-5742
▁beggin	-5743
▁wayne	-5744
ax	-5745
reds	-5746
▁clay	-5747
▁avoid	-5748
▁betta	-5749
▁senses	-5750
seat	-5751
▁tin	-5752
▁suggest	-5753
▁achie	-5754
▁cheating	-5755
amin	-5756
imed	-5757
▁wolves	-5758
▁excuses	-5759
▁spanish	-5760
whoa	-5761
▁yon	-5762
▁marching	-5763
▁spots	-5764
▁whips	-5765
▁magazine	-5766
▁fired	-5767
▁flaw	-5768
▁porn	-5769
▁stunt	-5770
▁aching	-5771
▁inform	-5772
▁chicago	-5773
▁correct	-5774
▁jama	-5775
▁progress	-5776
▁photograph	-5777
▁mug	-5778
▁jeep	-5779
hetic	-5780
icted	-5781
▁nightmares	-5782
▁wears	-5783
▁nowadays	-5784
mbers	-5785
▁figures	-5786
▁discover	-5787
▁et	-5788
▁shiny	-5789
▁sentence	-5790
▁bam	-5791
▁folk	-5792
li	-5793
▁tales	-5794
▁bong	-5795
▁despite	-5796
▁25	-5797
▁ros	-5798
▁fors	-5799
aire	-5800
nies	-5801
▁outlaw	-5802
▁carolina	-5803
▁tues	-5804
ipper	-5805
▁strain	-5806
▁jokes	-5807
mmm	-5808
▁parties	-5809
▁confidence	-5810
▁helping	-5811
▁tuesday	-5812
▁emptiness	-5813
▁jag	-5814
▁terrible	-5815
haps	-5816
asion	-5817
▁cursed	-5818
icip	-5819
▁lur	-5820
▁teard	-5821
▁exit	-5822
▁sauce	-5823
▁sever	-5824
▁homeboy	-5825
pac	-5826
▁sew	-5827
fucker	-5828
▁aight	-5829
▁x4	-5830
▁rod	-5831
▁saf	-5832
▁conv	-5833
▁genius	-5834
▁crumble	-5835
▁experience	-5836
while	-5837
▁casket	-5838
▁lifestyle	-5839
▁busted	-5840
ties	-5841
▁mayne	-5842
▁prote	-5843
▁contact	-5844
▁proceed	-5845
▁champion	-5846
▁alab	-5847
▁guaranteed	-5848
mers	-5849
▁castle	-5850
▁og	-5851
▁ide	-5852
▁rape	-5853
▁static	-5854
tw	-5855
▁dix	-5856
ppa	-5857
▁pawn	-5858
▁crank	-5859
▁everlasting	-5860
▁blac	-5861
▁lifes	-5862
▁powder	-5863
cra	-5864
▁thread	-5865
▁helps	-5866
chet	-5867
▁homey	-5868
▁suits	-5869
▁debt	-5870
▁handsome	-5871
chin	-5872
▁philly	-5873
aby	-5874
fit	-5875
▁invent	-5876
▁meets	-5877
▁complex	-5878
▁dedicated	-5879
proof	-5880
▁southside	-5881
▁deed	-5882
▁states	-5883
▁haw	-5884
▁halo	-5885
▁unto	-5886
▁doubts	-5887
▁swift	-5888
▁tools	-5889
▁houston	-5890
▁shits	-5891
▁haunted	-5892
ompl	-5893
▁reminds	-5894
▁hosp	-5895
ensive	-5896
▁pir	-5897
▁depart	-5898
▁stereo	-5899
▁bentley	-5900
gar	-5901
▁remedy	-5902
▁yee	-5903
▁satisfaction	-5904
aughters	-5905
▁willie	-5906
▁wig	-5907
▁maid	-5908
▁prophe	-5909
▁banks	-5910
▁discuss	-5911
▁listenin	-5912
▁arrest	-5913
▁caress	-5914
wr	-5915
▁ken	-5916
▁linger	-5917
▁parade	-5918
▁sailing	-5919
▁pulls	-5920
▁sexual	-5921
dee	-5922
cend	-5923
rella	-5924
▁shan	-5925
▁slugs	-5926
▁connection	-5927
▁produc	-5928
▁filling	-5929
four	-5930
inde	-5931
neck	-5932
▁caut	-5933
▁slack	-5934
▁dutch	-5935
▁backst	-5936
▁plat	-5937
▁prec	-5938
▁supreme	-5939
▁study	-5940
▁evidence	-5941
ping	-5942
iance	-5943
state	-5944
▁butterfly	-5945
ask	-5946
▁ni	-5947
place	-5948
▁pedal	-5949
ology	-5950
▁peoples	-5951
▁washing	-5952
▁sooner	-5953
▁chal	-5954
▁marks	-5955
▁hab	-5956
▁bind	-5957
▁fellow	-5958
iano	-5959
▁nur	-5960
▁cease	-5961
▁90	-5962
▁absol	-5963
▁cups	-5964
sequ	-5965
▁animals	-5966
ai	-5967
▁passes	-5968
▁sirens	-5969
▁warrior	-5970
oma	-5971
▁source	-5972
bin	-5973
iti	-5974
▁exec	-5975
▁rats	-5976
▁shiver	-5977
▁atlanta	-5978
▁official	-5979
▁spotlight	-5980
▁perfection	-5981
otha	-5982
ippy	-5983
▁bes	-5984
▁united	-5985
▁fry	-5986
▁wished	-5987
▁babylon	-5988
nessy	-5989
▁dwell	-5990
▁instrumental	-5991
▁spec	-5992
▁skirt	-5993
▁baller	-5994
▁feeding	-5995
zer	-5996
▁kim	-5997
▁muthafucka	-5998
▁zom	-5999
▁whispered	-6000
▁200	-6001
▁tables	-6002
▁pony	-6003
▁outro	-6004
▁denied	-6005
▁collide	-6006
▁worthless	-6007
zi	-6008
▁clubs	-6009
tra	-6010
▁aah	-6011
▁argu	-6012
▁bruise	-6013
▁flippin	-6014
utter	-6015
▁collap	-6016
▁knuck	-6017
▁scent	-6018
▁oceans	-6019
▁prefer	-6020
ems	-6021
▁peel	-6022
▁froze	-6023
▁forsake	-6024
▁overcome	-6025
eh	-6026
▁fits	-6027
▁harlem	-6028
▁dreamer	-6029
reg	-6030
▁feast	-6031
▁filthy	-6032
▁cuss	-6033
▁cheddar	-6034
▁halfway	-6035
▁provide	-6036
▁backseat	-6037
▁caps	-6038
▁growin	-6039
▁christian	-6040
▁colour	-6041
▁cooking	-6042
▁rearr	-6043
▁garbage	-6044
▁shallow	-6045
▁independent	-6046
pack	-6047
▁goals	-6048
fa	-6049
▁driven	-6050
▁creepin	-6051
▁daughters	-6052
▁foes	-6053
▁bruh	-6054
▁tequ	-6055
▁painting	-6056
▁ohhhhh	-6057
▁saddle	-6058
▁ships	-6059
▁accident	-6060
▁knot	-6061
sup	-6062
▁dancer	-6063
▁condition	-6064
cel	-6065
▁prey	-6066
▁sane	-6067
▁trump	-6068
▁houses	-6069
▁nickel	-6070
▁supply	-6071
▁gangstas	-6072
▁sickness	-6073
ivity	-6074
kened	-6075
▁mold	-6076
tt	-6077
umps	-6078
▁plag	-6079
▁temple	-6080
▁curtains	-6081
▁eventually	-6082
dr	-6083
vert	-6084
▁scor	-6085
▁crunk	-6086
▁pickin	-6087
▁bubb	-6088
▁inspiration	-6089
▁grate	-6090
▁eleven	-6091
▁remove	-6092
▁billion	-6093
form	-6094
▁vag	-6095
pical	-6096
▁jan	-6097
▁sic	-6098
▁hennessy	-6099
bor	-6100
bur	-6101
▁speakin	-6102
▁friendly	-6103
▁meta	-6104
▁lasts	-6105
▁whoop	-6106
▁gotten	-6107
▁tailgate	-6108
ighty	-6109
▁gypsy	-6110
▁reminisce	-6111
▁matt	-6112
anity	-6113
▁muh	-6114
hearted	-6115
▁politic	-6116
▁rate	-6117
▁curb	-6118
▁defend	-6119
▁opposite	-6120
▁mixta	-6121
▁reppin	-6122
▁thankful	-6123
scri	-6124
itties	-6125
▁booze	-6126
▁misunder	-6127
rac	-6128
juana	-6129
▁civil	-6130
▁countin	-6131
ede	-6132
▁tragic	-6133
▁crap	-6134
▁roar	-6135
▁security	-6136
▁choir	-6137
▁multip	-6138
uro	-6139
senger	-6140
▁reply	-6141
▁toll	-6142
▁astray	-6143
iles	-6144
llo	-6145
▁ali	-6146
▁sally	-6147
▁conce	-6148
▁lullaby	-6149
▁assass	-6150
▁ward	-6151
▁creek	-6152
▁venom	-6153
ept	-6154
▁empire	-6155
▁201	-6156
▁jul	-6157
▁tastes	-6158
▁remix	-6159
▁meeting	-6160
▁content	-6161
▁ignorance	-6162
piece	-6163
▁singer	-6164
▁railroad	-6165
▁concerned	-6166
▁revel	-6167
▁spoon	-6168
cast	-6169
hand	-6170
▁feature	-6171
▁tequila	-6172
▁influ	-6173
▁sling	-6174
▁sidewalk	-6175
▁wandering	-6176
lay	-6177
love	-6178
oted	-6179
▁lames	-6180
▁reel	-6181
▁entire	-6182
▁becoming	-6183
▁butterflies	-6184
▁favour	-6185
▁crushed	-6186
▁x3	-6187
▁sou	-6188
▁mont	-6189
▁cannon	-6190
▁degrees	-6191
▁quicker	-6192
ency	-6193
▁bees	-6194
▁tops	-6195
▁grief	-6196
▁sucks	-6197
anny	-6198
arded	-6199
▁sow	-6200
▁throughout	-6201
ded	-6202
ola	-6203
▁league	-6204
▁muscle	-6205
▁alm	-6206
▁odd	-6207
▁gasoline	-6208
bet	-6209
▁jewelry	-6210
▁ditch	-6211
▁connected	-6212
chan	-6213
▁consequ	-6214
▁english	-6215
▁tangled	-6216
▁mutha	-6217
▁footstep	-6218
▁22	-6219
▁vin	-6220
quest	-6221
▁acid	-6222
▁merc	-6223
▁trips	-6224
▁office	-6225
▁whispering	-6226
▁allah	-6227
▁eighteen	-6228
ca	-6229
▁tiger	-6230
////////	-6231
▁fooled	-6232
▁checkin	-6233
▁addiction	-6234
tie	-6235
▁yep	-6236
▁lands	-6237
▁yeh	-6238
▁wrath	-6239
▁wallet	-6240
▁display	-6241
▁fathers	-6242
▁phantom	-6243
bes	-6244
ito	-6245
mind	-6246
▁necess	-6247
▁nerves	-6248
▁seeking	-6249
▁arrive	-6250
▁amongst	-6251
▁attem	-6252
▁sate	-6253
▁dixie	-6254
▁globe	-6255
▁plead	-6256
friends	-6257
▁ages	-6258
▁hears	-6259
▁teenage	-6260
▁giant	-6261
ucky	-6262
▁lend	-6263
▁market	-6264
tem	-6265
▁bart	-6266
stairs	-6267
▁drill	-6268
▁ideas	-6269
rehe	-6270
▁pros	-6271
▁ramb	-6272
▁susp	-6273
▁asshole	-6274
▁dizzy	-6275
▁pearl	-6276
▁comput	-6277
▁deepest	-6278
▁describe	-6279
ali	-6280
▁hasn	-6281
▁crowded	-6282
▁failure	-6283
▁intellig	-6284
mic	-6285
▁eyed	-6286
▁poetry	-6287
▁grateful	-6288
▁rif	-6289
reat	-6290
stit	-6291
▁evol	-6292
▁boulev	-6293
▁sig	-6294
▁rooms	-6295
▁trains	-6296
▁emotional	-6297
orate	-6298
kk	-6299
dum	-6300
▁starin	-6301
aka	-6302
bell	-6303
▁mrs	-6304
▁superman	-6305
agger	-6306
▁perhaps	-6307
▁stuntin	-6308
▁general	-6309
▁protection	-6310
zin	-6311
▁dug	-6312
▁warn	-6313
▁regardless	-6314
▁bran	-6315
▁choices	-6316
▁ahhh	-6317
▁witch	-6318
▁wassup	-6319
▁hospital	-6320
▁survival	-6321
▁soot	-6322
▁tuck	-6323
▁impro	-6324
▁stroll	-6325
▁rushing	-6326
▁gradu	-6327
hou	-6328
▁3:	-6329
▁disp	-6330
▁faced	-6331
yyyy	-6332
usions	-6333
aud	-6334
▁obe	-6335
▁twil	-6336
▁warmth	-6337
▁tame	-6338
▁crave	-6339
▁legit	-6340
▁basket	-6341
▁lanes	-6342
▁timing	-6343
▁careless	-6344
▁jersey	-6345
▁obsess	-6346
▁17	-6347
ently	-6348
▁idol	-6349
▁sparks	-6350
▁valent	-6351
▁allowed	-6352
▁ticking	-6353
▁tay	-6354
▁dealer	-6355
▁scenes	-6356
ront	-6357
▁dew	-6358
▁mcs	-6359
cking	-6360
▁respons	-6361
▁glance	-6362
▁spendin	-6363
▁drew	-6364
▁beatin	-6365
▁gum	-6366
▁dais	-6367
▁carpet	-6368
▁slaves	-6369
ald	-6370
▁soda	-6371
▁however	-6372
hi	-6373
dah	-6374
rol	-6375
▁sport	-6376
▁swell	-6377
▁area	-6378
▁noon	-6379
▁kinds	-6380
▁skate	-6381
▁rene	-6382
▁resur	-6383
▁rabbit	-6384
hm	-6385
▁satell	-6386
▁cherish	-6387
▁tension	-6388
▁compromise	-6389
ati	-6390
▁sain	-6391
▁sung	-6392
▁ident	-6393
▁swang	-6394
▁mate	-6395
▁nail	-6396
▁pine	-6397
▁contempl	-6398
▁twilight	-6399
▁cameras	-6400
▁sucking	-6401
vail	-6402
▁instant	-6403
rog	-6404
▁capt	-6405
▁jean	-6406
▁ohhhh	-6407
▁define	-6408
▁exchan	-6409
▁attached	-6410
▁stressing	-6411
▁hottest	-6412
made	-6413
▁bene	-6414
▁backyard	-6415
▁ga	-6416
ansas	-6417
▁walt	-6418
▁scheme	-6419
▁waving	-6420
▁crad	-6421
▁section	-6422
ament	-6423
phones	-6424
▁argue	-6425
▁pavement	-6426
▁background	-6427
▁issue	-6428
▁muddy	-6429
▁penet	-6430
▁spliff	-6431
▁essence	-6432
▁percent	-6433
bro	-6434
▁buss	-6435
▁crimes	-6436
andal	-6437
▁safety	-6438
▁$	-6439
▁clowns	-6440
▁shield	-6441
▁marijuana	-6442
▁pupp	-6443
▁faking	-6444
▁century	-6445
▁jukebox	-6446
▁nu	-6447
▁makeup	-6448
▁haunting	-6449
▁hustlers	-6450
bone	-6451
bows	-6452
▁atmos	-6453
▁earned	-6454
▁coin	-6455
▁ribb	-6456
▁strict	-6457
▁frost	-6458
▁sincere	-6459
▁footsteps	-6460
istry	-6461
▁auth	-6462
▁rejo	-6463
▁vamp	-6464
▁whom	-6465
▁critic	-6466
that	-6467
▁cud	-6468
▁doc	-6469
▁flaws	-6470
▁rodeo	-6471
▁stains	-6472
▁heh	-6473
▁dish	-6474
▁africa	-6475
▁greedy	-6476
▁option	-6477
▁mes	-6478
▁maze	-6479
▁planes	-6480
▁sympathy	-6481
▁depression	-6482
▁fragile	-6483
▁swingin	-6484
▁univers	-6485
▁points	-6486
dro	-6487
▁aiyy	-6488
▁leve	-6489
▁mellow	-6490
▁wrongs	-6491
▁besides	-6492
▁mankind	-6493
bang	-6494
▁seal	-6495
▁unst	-6496
▁object	-6497
▁concent	-6498
bra	-6499
▁neva	-6500
▁slut	-6501
▁sleigh	-6502
▁blu	-6503
▁ted	-6504
▁kent	-6505
▁velve	-6506
▁clutch	-6507
▁shells	-6508
▁warned	-6509
▁leaning	-6510
▁wah	-6511
▁imper	-6512
▁props	-6513
▁tonk	-6514
▁sixty	-6515
▁wonders	-6516
▁carrying	-6517
▁forgetting	-6518
uuuu	-6519
▁basic	-6520
▁beans	-6521
▁startin	-6522
▁fountain	-6523
arer	-6524
▁illum	-6525
▁fourth	-6526
▁mirrors	-6527
omed	-6528
▁turnt	-6529
▁coward	-6530
▁packing	-6531
▁si	-6532
▁twin	-6533
▁cheeks	-6534
▁cookin	-6535
▁compton	-6536
▁undercover	-6537
▁'8	-6538
ayin	-6539
▁hog	-6540
▁storms	-6541
▁spiritual	-6542
▁hundreds	-6543
▁zoo	-6544
▁blonde	-6545
▁horror	-6546
ample	-6547
▁tumble	-6548
▁fuel	-6549
▁slug	-6550
▁kitty	-6551
aled	-6552
▁cope	-6553
▁piano	-6554
▁westside	-6555
▁serving	-6556
▁football	-6557
▁boulevard	-6558
▁chip	-6559
▁hadn	-6560
▁toil	-6561
▁lic	-6562
▁herb	-6563
▁saints	-6564
▁salute	-6565
▁stormy	-6566
▁grindin	-6567
hold	-6568
▁enc	-6569
▁vip	-6570
anged	-6571
▁spar	-6572
▁fixed	-6573
▁powers	-6574
▁skelet	-6575
▁ford	-6576
▁dusty	-6577
▁horny	-6578
▁ooooo	-6579
▁honesty	-6580
▁victims	-6581
▁kool	-6582
▁phony	-6583
▁aiyyo	-6584
▁underw	-6585
▁ahhhh	-6586
▁ridic	-6587
▁relief	-6588
▁raising	-6589
▁definitely	-6590
▁whirl	-6591
▁process	-6592
hmm	-6593
west	-6594
▁weave	-6595
▁union	-6596
▁passin	-6597
▁contain	-6598
chy	-6599
▁circum	-6600
cil	-6601
usive	-6602
▁female	-6603
▁bumping	-6604
▁goodness	-6605
-3	-6606
can	-6607
▁luv	-6608
▁mode	-6609
▁tits	-6610
atched	-6611
▁kneel	-6612
▁toward	-6613
▁rhyming	-6614
▁vine	-6615
▁chills	-6616
▁fitted	-6617
ell	-6618
uct	-6619
▁stalk	-6620
iant	-6621
itary	-6622
▁incre	-6623
▁cycle	-6624
▁downs	-6625
▁profit	-6626
▁whores	-6627
▁profession	-6628
▁opportunity	-6629
▁eggs	-6630
▁stee	-6631
▁tongues	-6632
▁peaceful	-6633
▁nest	-6634
met	-6635
▁tub	-6636
▁smith	-6637
▁unwind	-6638
▁screwed	-6639
foot	-6640
▁ache	-6641
▁tunnel	-6642
▁disappo	-6643
▁internet	-6644
▁rul	-6645
▁web	-6646
▁dealt	-6647
▁narrow	-6648
▁dynam	-6649
▁suffoc	-6650
▁alabama	-6651
▁hearted	-6652
▁apartment	-6653
▁swallowed	-6654
▁titties	-6655
▁atmosphere	-6656
ashes	-6657
▁tommy	-6658
▁biggie	-6659
je	-6660
leg	-6661
stop	-6662
icing	-6663
▁manage	-6664
▁information	-6665
▁ee	-6666
▁busting	-6667
▁pearls	-6668
▁defense	-6669
▁subject	-6670
▁insanity	-6671
▁bapt	-6672
▁reser	-6673
▁cooler	-6674
stance	-6675
▁illest	-6676
▁pattern	-6677
▁diffic	-6678
▁address	-6679
▁sanity	-6680
▁glowing	-6681
omp	-6682
▁murde	-6683
▁infinite	-6684
rified	-6685
▁struggling	-6686
▁rang	-6687
▁chapter	-6688
▁shatter	-6689
ques	-6690
▁scrap	-6691
▁sharing	-6692
▁fists	-6693
▁compass	-6694
▁negative	-6695
▁vent	-6696
▁worldwide	-6697
▁yonder	-6698
▁sleeps	-6699
'.	-6700
▁dism	-6701
nace	-6702
▁hypoc	-6703
▁masses	-6704
▁comprehe	-6705
▁heartaches	-6706
▁heed	-6707
▁upper	-6708
▁dimens	-6709
▁effort	-6710
▁tossed	-6711
▁messin	-6712
▁models	-6713
▁mentally	-6714
overed	-6715
▁reject	-6716
▁fried	-6717
▁placed	-6718
▁channel	-6719
▁believer	-6720
ieves	-6721
▁petty	-6722
▁pleas	-6723
kee	-6724
▁whatchu	-6725
▁suitcase	-6726
▁ame	-6727
▁paraly	-6728
▁perman	-6729
▁cheated	-6730
▁ave	-6731
▁blazing	-6732
▁fighter	-6733
lim	-6734
byes	-6735
▁firm	-6736
▁flowin	-6737
▁smilin	-6738
▁fas	-6739
▁swagger	-6740
'"	-6741
▁rowdy	-6742
▁totally	-6743
▁purse	-6744
▁#	-6745
▁outs	-6746
cedes	-6747
▁gifts	-6748
ule	-6749
▁umb	-6750
▁hates	-6751
▁almighty	-6752
▁45	-6753
roit	-6754
▁lat	-6755
▁sean	-6756
▁reaction	-6757
▁ale	-6758
▁sar	-6759
▁zip	-6760
▁flav	-6761
▁ruth	-6762
▁author	-6763
0,	-6764
▁explore	-6765
▁reverse	-6766
▁sinners	-6767
ager	-6768
▁ki	-6769
▁title	-6770
▁3,	-6771
imps	-6772
▁13	-6773
▁echoes	-6774
▁alt	-6775
▁tec	-6776
▁overse	-6777
cul	-6778
▁fiddle	-6779
▁drowned	-6780
▁forbid	-6781
▁mamma	-6782
▁habits	-6783
oooooooo	-6784
low	-6785
▁wondered	-6786
▁glist	-6787
▁thump	-6788
▁pressed	-6789
▁powerful	-6790
▁education	-6791
anda	-6792
▁leap	-6793
▁trial	-6794
▁inhale	-6795
▁freestyle	-6796
▁wip	-6797
ifest	-6798
▁anti	-6799
▁haul	-6800
▁rely	-6801
▁immort	-6802
▁disgust	-6803
▁posted	-6804
▁velvet	-6805
ilar	-6806
▁les	-6807
▁slo	-6808
▁pumpin	-6809
▁yellin	-6810
▁destined	-6811
nine	-6812
▁emcees	-6813
▁infect	-6814
▁served	-6815
die	-6816
rah	-6817
▁ms	-6818
card	-6819
▁glue	-6820
▁jobs	-6821
▁heres	-6822
▁views	-6823
▁limits	-6824
▁sucked	-6825
▁gamble	-6826
▁arrived	-6827
▁detroit	-6828
oodoo	-6829
▁robbed	-6830
▁glorious	-6831
▁solution	-6832
car	-6833
▁dozen	-6834
▁introduce	-6835
▁neglect	-6836
igo	-6837
▁obsc	-6838
▁handed	-6839
▁cruisin	-6840
▁disappeared	-6841
▁prim	-6842
▁symph	-6843
▁theyll	-6844
▁virginia	-6845
▁strife	-6846
▁chickens	-6847
lot	-6848
▁cowboys	-6849
ye	-6850
gots	-6851
stern	-6852
▁outer	-6853
▁appeal	-6854
▁faggot	-6855
▁trib	-6856
▁eighty	-6857
▁perfectly	-6858
olo	-6859
▁laced	-6860
▁marty	-6861
▁aww	-6862
▁crews	-6863
▁deuce	-6864
iddy	-6865
▁cocked	-6866
▁septem	-6867
wise	-6868
▁aha	-6869
▁oct	-6870
▁polo	-6871
▁dent	-6872
▁minor	-6873
▁amazed	-6874
rib	-6875
▁affect	-6876
▁metaph	-6877
▁refrain	-6878
▁succeed	-6879
▁spreading	-6880
▁china	-6881
▁cloudy	-6882
▁ripping	-6883
▁hump	-6884
▁stub	-6885
▁rugged	-6886
▁victor	-6887
okie	-6888
▁fatal	-6889
▁liquid	-6890
▁designer	-6891
▁humanity	-6892
▁definition	-6893
ek	-6894
▁flor	-6895
▁soil	-6896
▁soup	-6897
▁stiff	-6898
▁anticip	-6899
▁teardrops	-6900
idge	-6901
▁difficult	-6902
▁television	-6903
▁anch	-6904
▁highs	-6905
▁circus	-6906
▁heartless	-6907
mbered	-6908
▁inten	-6909
▁tempor	-6910
▁september	-6911
osing	-6912
▁align	-6913
▁brotha	-6914
▁poo	-6915
▁forgiven	-6916
ox	-6917
▁halls	-6918
▁scale	-6919
▁sleepy	-6920
inkle	-6921
▁gorge	-6922
▁devotion	-6923
aaa	-6924
gency	-6925
▁adam	-6926
▁silhou	-6927
phy	-6928
inct	-6929
▁sucka	-6930
▁hallow	-6931
▁beds	-6932
▁illeg	-6933
▁patron	-6934
sense	-6935
▁pors	-6936
▁rumors	-6937
▁jun	-6938
▁swo	-6939
▁grasp	-6940
▁popular	-6941
▁manifest	-6942
▁bake	-6943
▁horns	-6944
▁tunes	-6945
▁heights	-6946
antage	-6947
▁options	-6948
▁wounded	-6949
stood	-6950
▁shoo	-6951
▁thor	-6952
▁cuttin	-6953
▁latest	-6954
▁flipping	-6955
▁understands	-6956
long	-6957
▁pigs	-6958
▁rays	-6959
▁wigg	-6960
▁fiction	-6961
▁cruising	-6962
▁cin	-6963
▁gig	-6964
▁kat	-6965
▁carn	-6966
▁decl	-6967
▁dealin	-6968
▁voodoo	-6969
▁stained	-6970
▁absolute	-6971
▁fantasies	-6972
omy	-6973
11	-6974
alo	-6975
▁obser	-6976
▁distract	-6977
tage	-6978
▁nash	-6979
itz	-6980
▁roy	-6981
▁casual	-6982
wh	-6983
▁gos	-6984
▁program	-6985
▁loop	-6986
▁cocky	-6987
▁stamp	-6988
▁packin	-6989
ini	-6990
▁0	-6991
uffle	-6992
▁bench	-6993
▁bastards	-6994
▁guessing	-6995
eaker	-6996
▁gimm	-6997
▁embar	-6998
▁media	-6999
▁forces	-7000
▁thirt	-7001
▁temperature	-7002
itor	-7003
▁appet	-7004
▁ladder	-7005
▁breathin	-7006
▁goodbyes	-7007
▁mercedes	-7008
▁arch	-7009
▁cane	-7010
▁cheatin	-7011
▁strictly	-7012
▁verbal	-7013
▁western	-7014
▁depths	-7015
▁glocks	-7016
▁drippin	-7017
▁thuggin	-7018
▁challenge	-7019
dad	-7020
ohh	-7021
isha	-7022
▁hats	-7023
▁tum	-7024
▁liberty	-7025
▁starving	-7026
▁destroyed	-7027
▁godd	-7028
▁rises	-7029
▁mixtape	-7030
▁overtime	-7031
▁dull	-7032
▁writin	-7033
▁causing	-7034
▁jazz	-7035
▁knight	-7036
▁rattle	-7037
▁stripes	-7038
▁murdered	-7039
▁barn	-7040
▁rover	-7041
▁swept	-7042
▁mouths	-7043
▁choking	-7044
▁hustling	-7045
lah	-7046
▁36	-7047
nesday	-7048
▁farther	-7049
▁happenin	-7050
roc	-7051
▁lisa	-7052
▁plates	-7053
▁blanket	-7054
▁cowards	-7055
▁sticking	-7056
▁headlights	-7057
▁gan	-7058
inary	-7059
▁catchin	-7060
▁14	-7061
iana	-7062
▁lux	-7063
▁pays	-7064
▁sample	-7065
▁childhood	-7066
▁mouse	-7067
▁legal	-7068
▁trend	-7069
▁corpse	-7070
▁laughs	-7071
▁raging	-7072
▁opinion	-7073
▁yearning	-7074
ifer	-7075
ables	-7076
▁aust	-7077
▁diddy	-7078
▁chopper	-7079
▁poke	-7080
▁switching	-7081
▁agg	-7082
▁sag	-7083
▁weigh	-7084
▁sailor	-7085
▁spider	-7086
▁kindness	-7087
▁wednesday	-7088
▁cupid	-7089
▁cradle	-7090
▁tattoos	-7091
▁weeping	-7092
▁ambition	-7093
▁homicide	-7094
▁thousands	-7095
ez	-7096
lined	-7097
▁packs	-7098
▁willi	-7099
▁freeway	-7100
▁crossing	-7101
▁moonshine	-7102
bert	-7103
velop	-7104
▁labels	-7105
▁capital	-7106
▁ignorant	-7107
▁bloss	-7108
▁craft	-7109
▁frequ	-7110
eem	-7111
icks	-7112
mean	-7113
▁pud	-7114
▁womb	-7115
▁steak	-7116
▁darker	-7117
▁graves	-7118
▁african	-7119
▁drun	-7120
▁timb	-7121
▁unle	-7122
▁thurs	-7123
▁crowds	-7124
▁stressin	-7125
▁advantage	-7126
uary	-7127
▁dom	-7128
▁cabin	-7129
▁achieve	-7130
▁freight	-7131
-9	-7132
ault	-7133
▁fres	-7134
▁prisoner	-7135
rue	-7136
outs	-7137
▁obey	-7138
▁oooo	-7139
▁rippin	-7140
▁insecure	-7141
▁rocked	-7142
▁tucked	-7143
▁fronting	-7144
▁dippin	-7145
▁method	-7146
▁thursday	-7147
▁bean	-7148
▁punish	-7149
▁current	-7150
▁vod	-7151
▁deals	-7152
▁puffin	-7153
▁strung	-7154
▁wins	-7155
▁floors	-7156
▁sights	-7157
*"	-7158
icle	-7159
▁steer	-7160
▁unique	-7161
▁occup	-7162
▁stank	-7163
fold	-7164
▁weh	-7165
▁slips	-7166
▁peeps	-7167
▁posse	-7168
▁behavi	-7169
▁scoop	-7170
▁glitter	-7171
isco	-7172
arent	-7173
▁phat	-7174
▁battles	-7175
▁drawers	-7176
▁flipped	-7177
▁misunderstood	-7178
bir	-7179
rrrr	-7180
▁lawyer	-7181
▁hearin	-7182
▁infinity	-7183
▁committed	-7184
▁expensive	-7185
▁mand	-7186
▁fella	-7187
▁gorgeous	-7188
▁lighting	-7189
▁patiently	-7190
▁sleepless	-7191
rup	-7192
etic	-7193
vere	-7194
▁parked	-7195
▁monsters	-7196
▁abandoned	-7197
▁anthe	-7198
▁torch	-7199
▁desires	-7200
▁traveled	-7201
baby	-7202
▁rice	-7203
▁trad	-7204
▁punks	-7205
▁quart	-7206
▁romantic	-7207
▁favourite	-7208
mill	-7209
▁beck	-7210
▁pumping	-7211
▁bis	-7212
▁stacking	-7213
▁lac	-7214
▁twerk	-7215
▁hers	-7216
ference	-7217
▁mead	-7218
▁norther	-7219
▁venge	-7220
▁gue	-7221
▁clearer	-7222
▁draws	-7223
▁discon	-7224
cht	-7225
▁alien	-7226
▁extreme	-7227
▁wink	-7228
▁denial	-7229
▁sideways	-7230
▁depressed	-7231
▁mmmm	-7232
▁dodge	-7233
ends	-7234
woah	-7235
▁unde	-7236
ainted	-7237
imum	-7238
▁oxy	-7239
▁doct	-7240
cles	-7241
▁individ	-7242
▁sweater	-7243
▁chemistry	-7244
▁judgement	-7245
▁acts	-7246
▁knives	-7247
▁touchin	-7248
▁passenger	-7249
▁sensation	-7250
▁irre	-7251
▁payin	-7252
▁gathered	-7253
▁graveyard	-7254
▁shim	-7255
▁contr	-7256
▁stake	-7257
▁wagon	-7258
▁advance	-7259
▁potential	-7260
call	-7261
▁bloo	-7262
▁fier	-7263
▁poured	-7264
▁photo	-7265
▁overseas	-7266
▁paranoid	-7267
▁scattered	-7268
▁russ	-7269
▁beers	-7270
utation	-7271
▁mostly	-7272
▁suckin	-7273
▁changin	-7274
▁function	-7275
▁demise	-7276
▁leaders	-7277
wl	-7278
osop	-7279
▁jaws	-7280
▁semi	-7281
▁jelly	-7282
▁splash	-7283
▁hank	-7284
▁silk	-7285
father	-7286
▁.4	-7287
▁explos	-7288
▁tire	-7289
▁virt	-7290
▁vote	-7291
▁disgrace	-7292
▁vodka	-7293
▁contract	-7294
▁dynamite	-7295
▁freaking	-7296
▁poll	-7297
idin	-7298
▁euro	-7299
▁ninet	-7300
▁shitty	-7301
▁fooling	-7302
▁loyalty	-7303
cr	-7304
ura	-7305
▁seh	-7306
▁rend	-7307
▁liver	-7308
▁phones	-7309
▁era	-7310
▁steep	-7311
▁wrest	-7312
▁colours	-7313
dog	-7314
▁goddess	-7315
fish	-7316
▁gym	-7317
▁dishes	-7318
5,	-7319
▁poin	-7320
▁inches	-7321
▁keeper	-7322
▁breakdown	-7323
▁limp	-7324
▁digits	-7325
▁ultimate	-7326
▁gaz	-7327
ounce	-7328
▁hoped	-7329
▁strut	-7330
▁kentucky	-7331
▁idi	-7332
ining	-7333
▁sprung	-7334
▁curious	-7335
ban	-7336
pts	-7337
▁ari	-7338
▁explod	-7339
▁craving	-7340
▁gentleman	-7341
▁arise	-7342
▁climbed	-7343
▁vein	-7344
▁spect	-7345
▁serp	-7346
▁rusty	-7347
▁pounding	-7348
rick	-7349
▁nuff	-7350
▁grams	-7351
▁quote	-7352
▁bloods	-7353
▁replay	-7354
▁corrupt	-7355
▁guitars	-7356
▁buildings	-7357
belie	-7358
stream	-7359
▁tread	-7360
▁blades	-7361
▁ruined	-7362
▁ignite	-7363
▁replaced	-7364
▁sanct	-7365
▁digital	-7366
vas	-7367
▁maf	-7368
▁iced	-7369
▁towns	-7370
emption	-7371
▁asks	-7372
▁locks	-7373
▁nations	-7374
▁scarred	-7375
lace	-7376
▁bour	-7377
▁armor	-7378
▁4x	-7379
▁gur	-7380
▁symb	-7381
▁philosop	-7382
▁brut	-7383
▁hopped	-7384
▁vu	-7385
▁cliff	-7386
rection	-7387
▁stranded	-7388
▁loco	-7389
▁charac	-7390
▁noose	-7391
▁diesel	-7392
▁mistaken	-7393
riage	-7394
▁tapes	-7395
▁fishing	-7396
▁tighter	-7397
▁northern	-7398
▁confident	-7399
▁daze	-7400
▁duty	-7401
pir	-7402
▁kl	-7403
▁vap	-7404
▁shakes	-7405
▁kidding	-7406
▁nonsense	-7407
▁magazines	-7408
▁clo	-7409
▁mayn	-7410
▁flirt	-7411
▁smells	-7412
▁stackin	-7413
ships	-7414
▁jose	-7415
▁shark	-7416
▁jon	-7417
icidal	-7418
▁chine	-7419
▁boston	-7420
▁swerve	-7421
▁computer	-7422
▁instinct	-7423
▁machines	-7424
▁teachers	-7425
▁yu	-7426
fter	-7427
▁knocks	-7428
▁2pac	-7429
▁delay	-7430
▁freakin	-7431
▁humming	-7432
▁homeless	-7433
▁bulletproof	-7434
mate	-7435
▁dame	-7436
▁sock	-7437
▁spins	-7438
▁unlike	-7439
▁routine	-7440
▁beams	-7441
▁pulse	-7442
▁depends	-7443
▁expected	-7444
hor	-7445
mine	-7446
▁aunt	-7447
▁rumble	-7448
▁sealed	-7449
▁trance	-7450
▁politics	-7451
▁gap	-7452
▁remor	-7453
▁discip	-7454
▁elepha	-7455
▁remembered	-7456
ene	-7457
▁gau	-7458
▁alib	-7459
▁film	-7460
▁thieves	-7461
▁cripp	-7462
▁japan	-7463
▁raind	-7464
▁majest	-7465
▁sue	-7466
▁male	-7467
▁requ	-7468
▁patch	-7469
bar	-7470
▁flexin	-7471
▁awk	-7472
ender	-7473
▁bait	-7474
▁usual	-7475
▁wifey	-7476
▁convinced	-7477
▁lyrically	-7478
pin	-7479
▁random	-7480
iate	-7481
atics	-7482
▁soap	-7483
▁louie	-7484
▁aiming	-7485
▁sentiment	-7486
▁attraction	-7487
▁rank	-7488
▁glimp	-7489
▁consume	-7490
▁pourin	-7491
▁disturb	-7492
▁determin	-7493
▁vengeance	-7494
orted	-7495
▁coco	-7496
▁ruby	-7497
urally	-7498
▁goons	-7499
▁deceive	-7500
▁elevate	-7501
▁similar	-7502
▁brit	-7503
▁vice	-7504
▁airpl	-7505
▁brace	-7506
▁cents	-7507
▁redemption	-7508
hee	-7509
umed	-7510
vinci	-7511
▁soak	-7512
▁betty	-7513
▁chased	-7514
▁gospel	-7515
▁concern	-7516
▁slash	-7517
zel	-7518
heads	-7519
▁gala	-7520
▁thong	-7521
▁checked	-7522
▁remorse	-7523
2,	-7524
cross	-7525
▁vocal	-7526
▁tact	-7527
▁bronx	-7528
▁motel	-7529
tis	-7530
▁ll	-7531
ench	-7532
▁task	-7533
▁juicy	-7534
▁curves	-7535
▁mortal	-7536
▁therap	-7537
nis	-7538
▁ron	-7539
prints	-7540
▁rh	-7541
oner	-7542
▁itll	-7543
▁havent	-7544
▁dealers	-7545
▁shepher	-7546
▁symphony	-7547
▁curve	-7548
▁howling	-7549
▁miracles	-7550
aur	-7551
▁lows	-7552
▁peas	-7553
▁steve	-7554
▁blacks	-7555
▁wastin	-7556
▁199	-7557
▁temporary	-7558
▁rud	-7559
▁opening	-7560
▁cord	-7561
ortion	-7562
▁bartender	-7563
▁fuse	-7564
▁chalk	-7565
▁coach	-7566
▁pimps	-7567
▁chinese	-7568
▁hoop	-7569
▁landed	-7570
▁crackin	-7571
▁ridiculous	-7572
▁mothafuckin	-7573
olve	-7574
▁kur	-7575
▁mini	-7576
▁agony	-7577
▁apply	-7578
▁honeys	-7579
▁redneck	-7580
▁shouting	-7581
tips	-7582
▁aqu	-7583
▁moses	-7584
▁sales	-7585
▁stove	-7586
ulations	-7587
▁rejoice	-7588
▁messages	-7589
▁icy	-7590
ained	-7591
▁emcee	-7592
▁fishin	-7593
▁factory	-7594
iety	-7595
▁mourn	-7596
▁value	-7597
▁pickup	-7598
▁wantin	-7599
▁greatness	-7600
▁hash	-7601
▁muthafuckas	-7602
▁disag	-7603
▁awkward	-7604
▁conversations	-7605
gh	-7606
▁dall	-7607
▁liter	-7608
hard	-7609
▁cert	-7610
▁glam	-7611
▁phra	-7612
▁request	-7613
▁impressed	-7614
pow	-7615
▁coup	-7616
▁symbol	-7617
▁melting	-7618
▁prescri	-7619
▁guest	-7620
▁pregn	-7621
▁invite	-7622
▁volume	-7623
▁hunting	-7624
▁undress	-7625
▁mattress	-7626
▁obsession	-7627
▁eyel	-7628
▁pains	-7629
▁jacked	-7630
▁bald	-7631
▁lamp	-7632
▁rast	-7633
▁pepper	-7634
▁friendship	-7635
xx	-7636
oning	-7637
▁deta	-7638
▁finer	-7639
▁brakes	-7640
▁repent	-7641
▁betrayed	-7642
▁exchange	-7643
▁nashville	-7644
▁comprehend	-7645
anced	-7646
▁jive	-7647
▁kelly	-7648
▁inspired	-7649
▁obsessed	-7650
iah	-7651
▁nea	-7652
orting	-7653
▁freezing	-7654
tan	-7655
▁latin	-7656
▁yearn	-7657
thr	-7658
▁usa	-7659
▁surviv	-7660
▁illegal	-7661
▁winding	-7662
▁nothings	-7663
▁boyz	-7664
▁pover	-7665
▁drunken	-7666
▁priv	-7667
▁swisher	-7668
-0	-7669
▁leak	-7670
▁famil	-7671
▁millionaire	-7672
▁mere	-7673
▁during	-7674
▁realise	-7675
▁necklace	-7676
▁nove	-7677
▁benj	-7678
▁dummy	-7679
▁obliv	-7680
▁closest	-7681
▁village	-7682
▁dus	-7683
▁kil	-7684
▁sett	-7685
▁weezy	-7686
▁poverty	-7687
▁hypnotized	-7688
▁rifle	-7689
▁trusted	-7690
▁thirteen	-7691
****	-7692
▁seren	-7693
▁notion	-7694
▁riders	-7695
▁os	-7696
rock	-7697
▁beaten	-7698
▁naturally	-7699
nect	-7700
▁axe	-7701
▁reefer	-7702
▁painful	-7703
▁meanwhile	-7704
cut	-7705
wee	-7706
▁99	-7707
▁fuckers	-7708
▁borrowed	-7709
▁legacy	-7710
▁potato	-7711
▁designed	-7712
▁foundation	-7713
▁reputation	-7714
▁kha	-7715
▁nav	-7716
▁jeff	-7717
▁papi	-7718
▁creatures	-7719
haw	-7720
▁palace	-7721
▁settled	-7722
▁vulture	-7723
▁sneakers	-7724
ggy	-7725
▁incl	-7726
ilities	-7727
▁lethal	-7728
▁rhymin	-7729
▁version	-7730
bi	-7731
▁pizz	-7732
▁grant	-7733
▁gravy	-7734
▁logic	-7735
▁tremb	-7736
▁crushing	-7737
eys	-7738
udge	-7739
▁ratt	-7740
▁mount	-7741
▁intoxic	-7742
ril	-7743
▁iv	-7744
▁hav	-7745
▁critics	-7746
▁scandal	-7747
▁zoom	-7748
▁analy	-7749
▁invinci	-7750
▁waterfall	-7751
▁motha	-7752
▁nan	-7753
▁quot	-7754
▁scrub	-7755
▁wilder	-7756
▁greener	-7757
upt	-7758
urd	-7759
▁sweating	-7760
▁upstairs	-7761
▁toug	-7762
▁mistlet	-7763
▁tremble	-7764
▁23	-7765
▁pled	-7766
▁batter	-7767
▁summers	-7768
▁mek	-7769
▁hipp	-7770
▁busta	-7771
▁follows	-7772
hib	-7773
▁ze	-7774
▁ski	-7775
gment	-7776
▁kite	-7777
▁sorrows	-7778
▁blinding	-7779
▁expand	-7780
▁divided	-7781
cuff	-7782
▁puzzle	-7783
▁appetite	-7784
▁claiming	-7785
▁necessary	-7786
rix	-7787
▁hides	-7788
▁salty	-7789
▁anthem	-7790
▁wrists	-7791
▁planted	-7792
dles	-7793
▁prophet	-7794
▁suckas	-7795
▁bin	-7796
▁bled	-7797
▁scott	-7798
▁compete	-7799
▁ruthless	-7800
azy	-7801
seen	-7802
▁ruff	-7803
olation	-7804
▁broadway	-7805
▁girlfriends	-7806
▁screens	-7807
sweet	-7808
▁central	-7809
▁permanent	-7810
ora	-7811
▁foe	-7812
▁fury	-7813
▁accord	-7814
▁retire	-7815
▁bruised	-7816
▁session	-7817
▁applause	-7818
▁egg	-7819
▁jenny	-7820
▁pilot	-7821
▁charles	-7822
▁exposed	-7823
▁retarded	-7824
▁acqu	-7825
▁clar	-7826
▁hangs	-7827
▁earthqu	-7828
▁elevator	-7829
▁invincible	-7830
▁aby	-7831
▁deh	-7832
▁biting	-7833
▁whipped	-7834
▁mistletoe	-7835
▁valentine	-7836
▁motivation	-7837
▁cit	-7838
▁pla	-7839
▁goss	-7840
▁attempt	-7841
cat	-7842
wan	-7843
▁au	-7844
▁nuc	-7845
▁asses	-7846
▁gifted	-7847
▁baseball	-7848
▁convince	-7849
rum	-7850
▁bing	-7851
▁tiss	-7852
▁dallas	-7853
▁satellite	-7854
izzy	-7855
▁aug	-7856
▁umm	-7857
▁liars	-7858
▁limbs	-7859
▁scient	-7860
▁twisting	-7861
zes	-7862
▁rah	-7863
▁ras	-7864
▁slit	-7865
▁anxious	-7866
▁critical	-7867
▁hearse	-7868
▁element	-7869
▁porsche	-7870
''	-7871
▁bonnie	-7872
▁stores	-7873
acing	-7874
▁feathers	-7875
▁intellect	-7876
ller	-7877
▁unp	-7878
▁myth	-7879
▁montana	-7880
▁immortal	-7881
▁situations	-7882
▁universal	-7883
dies	-7884
▁romeo	-7885
▁backwood	-7886
▁buyin	-7887
▁raven	-7888
▁sands	-7889
▁erased	-7890
▁searched	-7891
▁obst	-7892
▁towel	-7893
▁advent	-7894
▁headin	-7895
▁coldest	-7896
▁stacked	-7897
▁fingertips	-7898
▁charms	-7899
▁glimpse	-7900
▁emergency	-7901
yl	-7902
gae	-7903
▁mt	-7904
▁prem	-7905
▁strive	-7906
▁mickey	-7907
▁drawing	-7908
iel	-7909
▁chim	-7910
▁pours	-7911
▁banana	-7912
▁chamber	-7913
▁magical	-7914
▁maria	-7915
▁switched	-7916
▁wonderland	-7917
bach	-7918
uthin	-7919
▁unha	-7920
▁cases	-7921
▁untrue	-7922
▁tickets	-7923
▁disagree	-7924
▁gown	-7925
▁jets	-7926
▁plague	-7927
geon	-7928
amers	-7929
▁hunn	-7930
▁veil	-7931
▁pines	-7932
▁leanin	-7933
▁eastside	-7934
very	-7935
▁cunt	-7936
▁miser	-7937
▁topic	-7938
▁carved	-7939
▁invited	-7940
▁complaining	-7941
uted	-7942
▁fru	-7943
▁buggin	-7944
▁fantastic	-7945
'-	-7946
nces	-7947
▁reci	-7948
▁soar	-7949
tended	-7950
▁willow	-7951
▁resting	-7952
▁handcuff	-7953
▁melodies	-7954
oss	-7955
aline	-7956
▁indo	-7957
▁robber	-7958
▁crashed	-7959
tang	-7960
▁cans	-7961
▁twitter	-7962
▁nineteen	-7963
roads	-7964
▁glob	-7965
▁arrog	-7966
▁dreamt	-7967
▁recipe	-7968
backs	-7969
▁playas	-7970
▁intention	-7971
lene	-7972
▁dank	-7973
▁stickin	-7974
▁dragging	-7975
▁ut	-7976
▁veter	-7977
▁clover	-7978
▁treats	-7979
▁develop	-7980
▁pennies	-7981
▁hopefully	-7982
▁cany	-7983
▁earl	-7984
▁unfor	-7985
▁compos	-7986
▁gladly	-7987
ahh	-7988
eth	-7989
▁fond	-7990
▁elvis	-7991
▁wildin	-7992
▁prett	-7993
▁sorta	-7994
▁unw	-7995
msayin	-7996
▁dicks	-7997
▁palms	-7998
▁blazin	-7999
▁france	-8000
▁termin	-8001
▁tinted	-8002
▁appears	-8003
▁florida	-8004
▁pistols	-8005
ores	-8006
▁duh	-8007
▁myst	-8008
▁jamaica	-8009
▁stripper	-8010
▁armed	-8011
▁drummer	-8012
omb	-8013
six	-8014
▁alpha	-8015
▁jug	-8016
▁taxi	-8017
▁galaxy	-8018
▁wetter	-8019
▁floatin	-8020
▁typical	-8021
▁tock	-8022
▁prada	-8023
▁zombie	-8024
▁mexican	-8025
▁sounding	-8026
▁louisiana	-8027
oken	-8028
▁bros	-8029
▁nope	-8030
▁pete	-8031
▁roug	-8032
▁cells	-8033
▁hitch	-8034
▁losers	-8035
▁ps	-8036
▁blinds	-8037
▁forsaken	-8038
50	-8039
▁dart	-8040
▁peri	-8041
▁overw	-8042
▁groupie	-8043
▁flyer	-8044
▁schemes	-8045
▁woe	-8046
▁nuthin	-8047
ads	-8048
▁cel	-8049
▁jaded	-8050
▁sheet	-8051
▁international	-8052
▁paths	-8053
▁pimping	-8054
▁collapse	-8055
▁dimension	-8056
▁hazy	-8057
▁brill	-8058
▁ropes	-8059
▁absurd	-8060
▁behave	-8061
▁licking	-8062
igan	-8063
▁exha	-8064
▁smashed	-8065
▁forbidden	-8066
lit	-8067
vey	-8068
▁cattle	-8069
▁condem	-8070
nge	-8071
▁wi	-8072
▁awe	-8073
▁dol	-8074
▁fel	-8075
▁necks	-8076
▁kansas	-8077
▁potion	-8078
▁trials	-8079
▁grandpa	-8080
coming	-8081
▁commer	-8082
▁garage	-8083
▁orders	-8084
rin	-8085
onic	-8086
reen	-8087
▁schol	-8088
▁tipsy	-8089
▁caution	-8090
▁flicker	-8091
▁healthy	-8092
▁torment	-8093
▁answered	-8094
▁ti	-8095
aves	-8096
▁taylor	-8097
cla	-8098
oot	-8099
▁ack	-8100
▁dand	-8101
▁annie	-8102
▁dolla	-8103
▁nucle	-8104
▁getcha	-8105
▁overflow	-8106
jack	-8107
▁dose	-8108
▁doug	-8109
▁bruce	-8110
▁harvest	-8111
▁whippin	-8112
▁resistance	-8113
▁maniac	-8114
▁tumbling	-8115
gage	-8116
▁gab	-8117
chant	-8118
tight	-8119
▁hahaha	-8120
▁confuse	-8121
▁despise	-8122
▁warriors	-8123
▁likely	-8124
▁reward	-8125
▁overwhel	-8126
▁remembering	-8127
▁ark	-8128
▁toxic	-8129
▁guiding	-8130
▁stubborn	-8131
▁confession	-8132
▁reminiscing	-8133
reet	-8134
sect	-8135
▁seams	-8136
▁gossip	-8137
▁eternally	-8138
▁grape	-8139
▁labor	-8140
▁groovy	-8141
▁thorns	-8142
▁england	-8143
▁pregnant	-8144
▁speeding	-8145
kill	-8146
▁jugg	-8147
▁daisy	-8148
▁mafia	-8149
▁buckle	-8150
▁reggae	-8151
▁servin	-8152
▁musical	-8153
▁sliding	-8154
▁celebration	-8155
▁clan	-8156
▁rooft	-8157
▁adjust	-8158
▁toilet	-8159
iders	-8160
▁persu	-8161
▁menace	-8162
▁captured	-8163
▁dil	-8164
pap	-8165
iggy	-8166
▁aiyo	-8167
▁dusk	-8168
▁saviour	-8169
▁spilled	-8170
ros	-8171
▁glide	-8172
▁lions	-8173
▁tribe	-8174
▁devour	-8175
▁killas	-8176
▁marley	-8177
▁tasted	-8178
▁speaker	-8179
▁thrills	-8180
berg	-8181
igator	-8182
▁pencil	-8183
▁perpet	-8184
▁artists	-8185
enti	-8186
riot	-8187
▁stew	-8188
umblin	-8189
▁hunter	-8190
▁soaking	-8191
▁planning	-8192
boo	-8193
weight	-8194
▁concl	-8195
▁farmer	-8196
▁ignored	-8197
▁survived	-8198
▁nun	-8199
▁gren	-8200
▁hugs	-8201
▁rese	-8202
▁waan	-8203
▁deeds	-8204
▁condom	-8205
fits	-8206
▁period	-8207
ondition	-8208
▁license	-8209
▁mink	-8210
▁foolin	-8211
▁ko	-8212
ckers	-8213
izzle	-8214
▁chev	-8215
▁franc	-8216
▁impat	-8217
▁dedicate	-8218
▁bully	-8219
▁funds	-8220
▁giddy	-8221
▁lobby	-8222
▁wrecked	-8223
▁bits	-8224
▁rehe	-8225
▁feeds	-8226
▁anchor	-8227
▁visual	-8228
▁winnin	-8229
▁november	-8230
▁entertainment	-8231
▁kany	-8232
▁fakin	-8233
▁oklah	-8234
▁spoil	-8235
▁slower	-8236
________	-8237
▁abyss	-8238
▁ka	-8239
▁rags	-8240
▁licks	-8241
▁obama	-8242
▁hesitation	-8243
▁dave	-8244
▁testing	-8245
▁stripped	-8246
▁influence	-8247
▁x2"	-8248
vable	-8249
▁hmmm	-8250
▁weig	-8251
▁keith	-8252
▁compan	-8253
30	-8254
,000	-8255
inger	-8256
▁cube	-8257
▁ross	-8258
▁worm	-8259
▁midst	-8260
▁treating	-8261
▁mothafucka	-8262
▁asian	-8263
▁dried	-8264
▁raindrops	-8265
cies	-8266
icles	-8267
▁spilling	-8268
▁om	-8269
▁ung	-8270
▁aids	-8271
▁melan	-8272
▁polar	-8273
▁gloves	-8274
▁package	-8275
▁quietly	-8276
mail	-8277
erate	-8278
▁german	-8279
▁suburb	-8280
▁travelin	-8281
she	-8282
van	-8283
▁dm	-8284
hers	-8285
igga	-8286
▁shouts	-8287
▁cracking	-8288
three	-8289
track	-8290
▁easter	-8291
▁getaway	-8292
▁retreat	-8293
▁rainbows	-8294
free	-8295
uous	-8296
▁tides	-8297
▁plains	-8298
▁reaper	-8299
▁judgment	-8300
▁overdose	-8301
▁returned	-8302
▁urge	-8303
▁bitty	-8304
▁chant	-8305
▁paved	-8306
▁suspect	-8307
zard	-8308
▁apo	-8309
▁bul	-8310
▁spy	-8311
▁dances	-8312
▁stares	-8313
▁swords	-8314
▁several	-8315
▁choosing	-8316
▁paralyzed	-8317
▁atom	-8318
▁howl	-8319
▁kong	-8320
▁spike	-8321
▁spaceship	-8322
cons	-8323
▁bah	-8324
ibility	-8325
▁bleeds	-8326
▁endure	-8327
▁joints	-8328
▁families	-8329
▁murderer	-8330
▁rearrange	-8331
oun	-8332
works	-8333
▁cape	-8334
▁spice	-8335
▁buzzin	-8336
▁endlessly	-8337
▁biscu	-8338
▁soaked	-8339
▁lays	-8340
ization	-8341
▁shorts	-8342
▁lemonade	-8343
▁oklahoma	-8344
▁released	-8345
▁wy	-8346
tail	-8347
▁rig	-8348
▁yum	-8349
▁mole	-8350
▁motto	-8351
▁cheers	-8352
▁grandm	-8353
▁watches	-8354
▁unex	-8355
▁boast	-8356
▁murda	-8357
▁hoppin	-8358
▁colored	-8359
▁doctors	-8360
▁fearless	-8361
▁bom	-8362
▁yer	-8363
▁vibr	-8364
▁gears	-8365
▁lickin	-8366
▁oooooh	-8367
▁sweatin	-8368
bee	-8369
kes	-8370
▁gravel	-8371
▁unkind	-8372
▁throwed	-8373
rene	-8374
▁lav	-8375
▁snitches	-8376
lands	-8377
▁lucy	-8378
▁phon	-8379
▁caddy	-8380
▁marie	-8381
pective	-8382
▁drought	-8383
▁transform	-8384
▁directions	-8385
▁somethings	-8386
uals	-8387
▁bears	-8388
▁cutie	-8389
▁lordy	-8390
▁opens	-8391
▁peers	-8392
▁example	-8393
▁bouncing	-8394
▁pige	-8395
▁anyhow	-8396
▁shovel	-8397
▁teaching	-8398
ctic	-8399
riff	-8400
▁syn	-8401
▁pyram	-8402
▁copped	-8403
▁heroin	-8404
▁supper	-8405
▁reachin	-8406
-8	-8407
▁carries	-8408
▁assassin	-8409
ippers	-8410
▁kanye	-8411
▁sends	-8412
▁grease	-8413
▁oxygen	-8414
▁ratchet	-8415
▁ara	-8416
▁neat	-8417
▁plea	-8418
▁boats	-8419
▁shirts	-8420
▁3rd	-8421
▁ape	-8422
▁brim	-8423
broken	-8424
▁badly	-8425
▁squir	-8426
har	-8427
▁brief	-8428
rim	-8429
▁respond	-8430
▁possibly	-8431
▁trembling	-8432
▁excl	-8433
▁april	-8434
▁flown	-8435
▁sports	-8436
▁stride	-8437
▁wooden	-8438
▁babygirl	-8439
▁rit	-8440
atory	-8441
▁dubs	-8442
▁notch	-8443
▁jason	-8444
▁accompl	-8445
▁driveway	-8446
ffi	-8447
▁gag	-8448
▁anno	-8449
▁bund	-8450
▁hidin	-8451
▁stead	-8452
▁wires	-8453
▁vanity	-8454
▁hallway	-8455
▁believes	-8456
woo	-8457
lord	-8458
▁2000	-8459
▁slapped	-8460
▁therapy	-8461
▁frightened	-8462
olic	-8463
▁abo	-8464
▁adren	-8465
▁naive	-8466
▁raped	-8467
▁dipped	-8468
▁sicker	-8469
▁suicidal	-8470
▁alar	-8471
▁undo	-8472
▁luxury	-8473
▁blastin	-8474
▁bouncin	-8475
▁buildin	-8476
▁timeless	-8477
▁bittersweet	-8478
▁divor	-8479
▁troop	-8480
▁expose	-8481
▁introduc	-8482
▁mos	-8483
▁vic	-8484
▁blend	-8485
▁humans	-8486
▁sailed	-8487
▁justify	-8488
▁roast	-8489
▁excite	-8490
▁slangin	-8491
▁sentimental	-8492
▁uncondition	-8493
▁bacon	-8494
▁hypocr	-8495
▁masters	-8496
▁disconnect	-8497
▁bash	-8498
▁hawk	-8499
▁plow	-8500
▁raisin	-8501
tu	-8502
▁chef	-8503
▁mild	-8504
▁nina	-8505
▁embra	-8506
▁escal	-8507
▁untou	-8508
▁afar	-8509
▁narc	-8510
▁ribs	-8511
▁pizza	-8512
▁puppet	-8513
▁silhouette	-8514
▁ren	-8515
▁laund	-8516
▁types	-8517
▁images	-8518
▁johnson	-8519
▁planets	-8520
▁playground	-8521
iva	-8522
▁stim	-8523
▁towers	-8524
▁triump	-8525
▁umbrella	-8526
uries	-8527
▁mush	-8528
fuckin	-8529
▁overnight	-8530
bot	-8531
nat	-8532
▁flags	-8533
▁stable	-8534
▁stared	-8535
▁vacant	-8536
▁ooooooo	-8537
▁occasion	-8538
fi	-8539
eased	-8540
▁arri	-8541
▁dign	-8542
jection	-8543
▁signal	-8544
raw	-8545
▁ot	-8546
▁apoc	-8547
▁rico	-8548
▁fences	-8549
▁exhaust	-8550
▁maybach	-8551
20	-8552
rep	-8553
yah	-8554
▁exce	-8555
▁perc	-8556
▁viet	-8557
▁assume	-8558
▁carter	-8559
▁devast	-8560
▁recover	-8561
zie	-8562
▁hal	-8563
▁fluid	-8564
▁ais	-8565
ander	-8566
▁robot	-8567
▁misses	-8568
▁happily	-8569
▁screamed	-8570
▁weekends	-8571
▁pipes	-8572
▁reinde	-8573
▁throws	-8574
▁pathetic	-8575
cal	-8576
check	-8577
▁kane	-8578
▁hillb	-8579
▁sloppy	-8580
▁unlock	-8581
ults	-8582
▁aboard	-8583
▁guer	-8584
▁oven	-8585
▁vivid	-8586
▁stealin	-8587
▁legendary	-8588
▁huge	-8589
▁beard	-8590
▁yacht	-8591
▁troops	-8592
▁unseen	-8593
dig	-8594
anas	-8595
boom	-8596
▁rein	-8597
▁sails	-8598
▁wakes	-8599
▁seventh	-8600
▁evolution	-8601
ups	-8602
esse	-8603
essed	-8604
▁deer	-8605
▁clout	-8606
▁venus	-8607
▁copper	-8608
▁height	-8609
aaaaaaaa	-8610
▁offering	-8611
bad	-8612
▁nod	-8613
▁unite	-8614
▁scatter	-8615
▁yi	-8616
aver	-8617
oooh	-8618
rose	-8619
▁weake	-8620
▁coochie	-8621
▁nuclear	-8622
▁texting	-8623
▁ii	-8624
odel	-8625
otch	-8626
▁ank	-8627
▁cyn	-8628
▁shores	-8629
▁chained	-8630
▁chopped	-8631
▁offered	-8632
▁increase	-8633
▁property	-8634
sets	-8635
▁lining	-8636
▁brake	-8637
hhhhhhhh	-8638
▁barefoot	-8639
▁deserves	-8640
▁flawless	-8641
hil	-8642
▁cod	-8643
shots	-8644
▁exotic	-8645
▁playboy	-8646
▁gir	-8647
▁wiser	-8648
▁charts	-8649
▁sheriff	-8650
▁behavior	-8651
ancing	-8652
headed	-8653
▁robin	-8654
▁classy	-8655
▁mechan	-8656
▁needles	-8657
▁impatient	-8658
▁stretched	-8659
eee	-8660
▁lev	-8661
▁acce	-8662
▁tote	-8663
▁obstac	-8664
▁richer	-8665
▁certified	-8666
▁jury	-8667
▁europe	-8668
▁presents	-8669
▁scratching	-8670
7,	-8671
su	-8672
▁admire	-8673
▁custom	-8674
opp	-8675
▁edd	-8676
▁mason	-8677
breaker	-8678
▁illusions	-8679
▁vom	-8680
▁yan	-8681
▁fork	-8682
▁boxes	-8683
▁fabric	-8684
'!	-8685
▁altar	-8686
▁lords	-8687
▁detect	-8688
▁enlight	-8689
▁persist	-8690
▁surrounds	-8691
gal	-8692
▁arc	-8693
▁ira	-8694
▁file	-8695
▁crumb	-8696
▁stutter	-8697
▁thorough	-8698
▁headphones	-8699
▁personality	-8700
▁sple	-8701
▁unsp	-8702
▁eager	-8703
▁weeds	-8704
▁canvas	-8705
▁contest	-8706
▁apologies	-8707
feit	-8708
rend	-8709
uine	-8710
holes	-8711
▁fling	-8712
▁defeated	-8713
aaah	-8714
▁econ	-8715
▁lexus	-8716
▁writer	-8717
cip	-8718
boat	-8719
▁stakes	-8720
▁buttons	-8721
▁oakland	-8722
▁serpent	-8723
atu	-8724
▁muse	-8725
ealing	-8726
urance	-8727
▁frames	-8728
▁creator	-8729
▁slowing	-8730
▁revealed	-8731
rey	-8732
ories	-8733
▁grie	-8734
▁teddy	-8735
▁mornings	-8736
▁smelling	-8737
▁faint	-8738
▁henry	-8739
▁simpl	-8740
▁august	-8741
rari	-8742
▁kidna	-8743
▁overdue	-8744
▁quarters	-8745
▁professional	-8746
fare	-8747
ican	-8748
▁danny	-8749
▁haffi	-8750
▁whipping	-8751
▁politicians	-8752
▁bla	-8753
▁sca	-8754
otine	-8755
▁ruck	-8756
▁tramp	-8757
▁messiah	-8758
zo	-8759
▁hind	-8760
▁loan	-8761
▁suns	-8762
▁pinky	-8763
▁sandw	-8764
▁ballers	-8765
bag	-8766
▁bolt	-8767
▁toot	-8768
▁theme	-8769
▁ragged	-8770
▁buffalo	-8771
▁shocked	-8772
▁trailer	-8773
▁condo	-8774
▁gauge	-8775
▁optim	-8776
▁prior	-8777
▁photos	-8778
▁groupies	-8779
▁tyr	-8780
▁flop	-8781
▁mona	-8782
▁nikes	-8783
▁nurse	-8784
▁highly	-8785
▁riddle	-8786
▁soulja	-8787
▁unhappy	-8788
▁confusing	-8789
ibal	-8790
▁bugs	-8791
▁ruins	-8792
▁syrup	-8793
▁vocals	-8794
▁wizard	-8795
▁faggots	-8796
▁motions	-8797
▁gs	-8798
▁impl	-8799
▁mamas	-8800
▁apocaly	-8801
ader	-8802
▁claw	-8803
▁wage	-8804
▁revelation	-8805
▁tack	-8806
▁meadow	-8807
▁undert	-8808
▁decline	-8809
▁recording	-8810
▁tradition	-8811
agram	-8812
▁dine	-8813
▁longest	-8814
▁massive	-8815
▁profess	-8816
▁rotting	-8817
▁trained	-8818
▁woh	-8819
▁splend	-8820
▁battlefield	-8821
▁mau	-8822
ishes	-8823
▁alter	-8824
▁minus	-8825
astered	-8826
▁wildest	-8827
▁character	-8828
xed	-8829
erto	-8830
▁198	-8831
ially	-8832
▁desk	-8833
▁gloom	-8834
▁lined	-8835
▁ruler	-8836
onda	-8837
▁eden	-8838
▁stam	-8839
▁bunny	-8840
▁jerry	-8841
▁tense	-8842
▁unra	-8843
▁chump	-8844
▁harry	-8845
▁knots	-8846
▁rolex	-8847
▁settin	-8848
▁traded	-8849
▁**	-8850
anna	-8851
matic	-8852
▁jams	-8853
▁confl	-8854
▁gotti	-8855
▁insist	-8856
▁turkey	-8857
▁abandon	-8858
▁illumin	-8859
▁partners	-8860
▁perspective	-8861
oufl	-8862
▁uzi	-8863
▁leng	-8864
▁silently	-8865
ux	-8866
▁pi	-8867
gain	-8868
odle	-8869
▁gunna	-8870
▁abused	-8871
▁chemical	-8872
▁nighttime	-8873
▁sweetness	-8874
▁strawberry	-8875
▁hed	-8876
▁curl	-8877
▁snip	-8878
▁stabbed	-8879
▁ana	-8880
▁anna	-8881
▁caring	-8882
▁global	-8883
▁lifting	-8884
▁sleeves	-8885
▁smarter	-8886
▁priceless	-8887
▁disappoint	-8888
▁expression	-8889
▁desperation	-8890
god	-8891
some	-8892
▁cran	-8893
▁sole	-8894
▁manip	-8895
▁waltz	-8896
▁reborn	-8897
▁buddies	-8898
▁officer	-8899
▁apparent	-8900
▁mysterious	-8901
wwww	-8902
posed	-8903
▁goat	-8904
▁vows	-8905
▁pledge	-8906
▁angeles	-8907
▁slumber	-8908
▁airplane	-8909
ober	-8910
anese	-8911
▁doomed	-8912
▁denying	-8913
▁thicker	-8914
▁multiply	-8915
mat	-8916
▁ov	-8917
▁git	-8918
▁crisp	-8919
▁discovered	-8920
grown	-8921
▁slain	-8922
▁shouldnt	-8923
iring	-8924
▁brow	-8925
▁cult	-8926
▁eddie	-8927
▁columb	-8928
▁legends	-8929
▁sparkle	-8930
▁stumbling	-8931
▁bod	-8932
▁gem	-8933
▁kay	-8934
▁sta	-8935
▁wret	-8936
▁hooks	-8937
▁pleased	-8938
▁genes	-8939
▁rapid	-8940
▁junkie	-8941
▁sprite	-8942
bac	-8943
ena	-8944
flo	-8945
ota	-8946
bers	-8947
oons	-8948
quis	-8949
ettes	-8950
▁barbe	-8951
▁fakes	-8952
▁marble	-8953
▁select	-8954
▁audience	-8955
▁blasting	-8956
▁witcha	-8957
▁bourbon	-8958
▁flights	-8959
~!	-8960
▁chu	-8961
▁var	-8962
child	-8963
▁ariz	-8964
▁brus	-8965
▁dock	-8966
▁closely	-8967
▁rapture	-8968
yi	-8969
▁tube	-8970
▁blasp	-8971
▁clack	-8972
▁limous	-8973
▁terrified	-8974
▁cain	-8975
▁hesit	-8976
▁gained	-8977
▁reindeer	-8978
▁expecting	-8979
lts	-8980
clip	-8981
dens	-8982
world	-8983
▁cass	-8984
▁slur	-8985
▁hydro	-8986
▁joking	-8987
▁coaster	-8988
▁miserable	-8989
▁av	-8990
▁hm	-8991
▁dur	-8992
▁mow	-8993
▁fails	-8994
▁deeply	-8995
▁junior	-8996
▁butcher	-8997
▁sounded	-8998
▁resurrect	-8999
kyo	-9000
▁kr	-9001
▁mtv	-9002
inals	-9003
stein	-9004
▁tons	-9005
▁swollen	-9006
▁mourning	-9007
▁basically	-9008
▁fue	-9009
▁kam	-9010
▁lud	-9011
▁kobe	-9012
▁elephant	-9013
▁turf	-9014
▁tokyo	-9015
▁confront	-9016
▁reminded	-9017
▁consequence	-9018
▁frustration	-9019
loo	-9020
owl	-9021
▁dor	-9022
▁moe	-9023
▁alleg	-9024
▁domino	-9025
▁heated	-9026
▁starry	-9027
▁camoufl	-9028
▁mentality	-9029
▁absolutely	-9030
bea	-9031
▁cere	-9032
▁crip	-9033
▁dunk	-9034
▁sher	-9035
▁tags	-9036
▁poker	-9037
▁levels	-9038
▁niggers	-9039
▁smaller	-9040
▁testify	-9041
▁shouldve	-9042
▁starlight	-9043
▁."	-9044
▁cable	-9045
▁cigar	-9046
▁wired	-9047
▁budget	-9048
▁gorilla	-9049
▁matches	-9050
▁prevail	-9051
keys	-9052
▁eld	-9053
▁pron	-9054
▁hobby	-9055
stitute	-9056
▁lincol	-9057
▁timber	-9058
▁bottoms	-9059
▁marriage	-9060
sm	-9061
burn	-9062
iche	-9063
than	-9064
uther	-9065
▁heck	-9066
▁goods	-9067
▁rever	-9068
▁seize	-9069
▁online	-9070
▁vanish	-9071
▁declare	-9072
▁pointed	-9073
▁overload	-9074
whe	-9075
▁poppa	-9076
▁acknow	-9077
▁buddha	-9078
▁effects	-9079
▁lifeless	-9080
▁interstate	-9081
▁representin	-9082
▁tempted	-9083
lan	-9084
▁nines	-9085
▁dragged	-9086
▁irrelev	-9087
▁delicious	-9088
▁otherwise	-9089
▁expectations	-9090
ua	-9091
▁ine	-9092
▁eats	-9093
▁royalty	-9094
pse	-9095
▁pep	-9096
▁itch	-9097
▁sofa	-9098
▁scope	-9099
▁veget	-9100
▁deceit	-9101
▁intense	-9102
▁backpack	-9103
▁jab	-9104
▁tug	-9105
▁heel	-9106
▁mega	-9107
▁wives	-9108
▁assist	-9109
▁groovin	-9110
▁compared	-9111
▁dedication	-9112
uming	-9113
▁heav	-9114
▁citiz	-9115
▁pumps	-9116
▁summon	-9117
▁dreamers	-9118
▁features	-9119
▁gangsters	-9120
onna	-9121
▁whit	-9122
double	-9123
▁solar	-9124
▁cookie	-9125
▁greens	-9126
▁hillbilly	-9127
erc	-9128
try	-9129
▁rio	-9130
▁amaze	-9131
▁drake	-9132
oppable	-9133
▁failing	-9134
▁backwoods	-9135
▁adrenaline	-9136
▁compassion	-9137
▁relationships	-9138
ateg	-9139
eight	-9140
▁unfair	-9141
▁arizona	-9142
▁waitress	-9143
▁surrounding	-9144
oen	-9145
holy	-9146
aging	-9147
▁contag	-9148
▁puerto	-9149
▁swimmin	-9150
▁disappears	-9151
▁everybodys	-9152
hab	-9153
▁5,	-9154
▁hire	-9155
▁luke	-9156
▁slab	-9157
▁thom	-9158
▁joker	-9159
▁throt	-9160
▁heater	-9161
▁pastor	-9162
▁blossom	-9163
▁ket	-9164
▁dram	-9165
▁mule	-9166
▁awaits	-9167
▁fortun	-9168
▁anxiety	-9169
▁majesty	-9170
ko	-9171
eye	-9172
▁dap	-9173
▁awaken	-9174
▁secure	-9175
▁mistress	-9176
▁intelligent	-9177
gues	-9178
lyde	-9179
lfare	-9180
▁tray	-9181
▁suite	-9182
▁greasy	-9183
▁unstoppable	-9184
ivin	-9185
▁exhale	-9186
▁witnes	-9187
▁welfare	-9188
▁bothered	-9189
▁metaphor	-9190
▁community	-9191
▁tek	-9192
▁kang	-9193
▁loll	-9194
▁scorn	-9195
▁skins	-9196
▁shooter	-9197
thouse	-9198
▁berry	-9199
▁carve	-9200
▁penis	-9201
▁chairs	-9202
▁explan	-9203
▁spiral	-9204
▁tenderly	-9205
▁hyper	-9206
▁member	-9207
▁miller	-9208
▁sharks	-9209
▁unreal	-9210
▁bleedin	-9211
▁trusting	-9212
▁oz	-9213
ivered	-9214
▁proved	-9215
▁october	-9216
▁straighten	-9217
▁tac	-9218
▁alex	-9219
▁gigg	-9220
▁alike	-9221
▁redee	-9222
▁consist	-9223
▁touches	-9224
▁solitude	-9225
▁preaching	-9226
▁alert	-9227
▁genoc	-9228
▁virus	-9229
▁vampire	-9230
▁colorado	-9231
▁uncertain	-9232
ont	-9233
oph	-9234
▁som	-9235
▁meek	-9236
▁purcha	-9237
▁relent	-9238
▁prophecy	-9239
▁brightest	-9240
▁permission	-9241
mun	-9242
▁bog	-9243
seven	-9244
▁haunts	-9245
▁rarely	-9246
▁schools	-9247
agn	-9248
rael	-9249
▁muff	-9250
▁doggy	-9251
▁crooks	-9252
▁gritty	-9253
aid	-9254
▁ohio	-9255
▁eclip	-9256
▁swirl	-9257
▁amends	-9258
▁combat	-9259
▁diving	-9260
▁lavish	-9261
▁portra	-9262
quet	-9263
▁spun	-9264
▁sendin	-9265
▁bending	-9266
▁slightly	-9267
▁invitation	-9268
▁va	-9269
olin	-9270
▁thus	-9271
▁parted	-9272
▁contrad	-9273
▁individual	-9274
▁tenderness	-9275
oty	-9276
fuckers	-9277
▁mixing	-9278
▁princip	-9279
▁presidents	-9280
name	-9281
▁oops	-9282
▁broom	-9283
▁cleve	-9284
▁recon	-9285
ativity	-9286
▁racist	-9287
▁buzzing	-9288
-,	-9289
ige	-9290
dled	-9291
utions	-9292
▁grime	-9293
▁ricky	-9294
▁satin	-9295
▁titan	-9296
rance	-9297
▁pean	-9298
iments	-9299
▁milli	-9300
▁owned	-9301
▁risin	-9302
▁bacard	-9303
▁phrase	-9304
▁shapes	-9305
▁flexing	-9306
▁creating	-9307
chi	-9308
▁ox	-9309
look	-9310
▁bets	-9311
▁cole	-9312
▁moss	-9313
▁viny	-9314
▁chess	-9315
▁reneg	-9316
▁crimson	-9317
▁basketball	-9318
storm	-9319
▁skeet	-9320
▁airport	-9321
▁escaping	-9322
▁instagram	-9323
4,	-9324
hill	-9325
▁vul	-9326
▁lass	-9327
▁knuckles	-9328
▁fang	-9329
ourage	-9330
▁heals	-9331
▁tatted	-9332
▁uptight	-9333
▁fourteen	-9334
▁begged	-9335
▁transl	-9336
▁wiggle	-9337
▁willin	-9338
▁lucifer	-9339
▁nd	-9340
▁rans	-9341
icular	-9342
▁opinions	-9343
▁scheming	-9344
▁pleasures	-9345
▁earthquake	-9346
▁//	-9347
▁mhm	-9348
▁barri	-9349
▁tempo	-9350
▁twins	-9351
▁richard	-9352
▁corporate	-9353
onym	-9354
▁dong	-9355
▁misty	-9356
▁overth	-9357
▁quality	-9358
▁vultures	-9359
▁seriously	-9360
▁soph	-9361
▁moral	-9362
▁clocks	-9363
▁grieve	-9364
▁stance	-9365
▁doorway	-9366
▁identity	-9367
▁pointing	-9368
▁fireworks	-9369
vah	-9370
agan	-9371
ldom	-9372
▁phoen	-9373
▁realer	-9374
▁invented	-9375
ni	-9376
cup	-9377
▁az	-9378
▁9th	-9379
▁vast	-9380
lessly	-9381
▁ridge	-9382
▁breaker	-9383
▁lincoln	-9384
▁equipped	-9385
▁cob	-9386
illas	-9387
▁clyde	-9388
▁coinc	-9389
▁pitiful	-9390
▁sparrow	-9391
▁throttle	-9392
▁wrecking	-9393
▁passionate	-9394
----------------	-9395
llin	-9396
▁denim	-9397
▁fries	-9398
▁wakin	-9399
▁counted	-9400
▁returning	-9401
3,	-9402
aign	-9403
▁empl	-9404
▁prick	-9405
▁seldom	-9406
▁closure	-9407
▁smacked	-9408
▁60	-9409
▁hym	-9410
hound	-9411
▁poem	-9412
▁choked	-9413
▁poster	-9414
▁ribbon	-9415
▁videos	-9416
▁believin	-9417
angle	-9418
▁fund	-9419
▁curls	-9420
▁cooked	-9421
▁winners	-9422
▁determined	-9423
tat	-9424
rell	-9425
▁boost	-9426
▁decent	-9427
▁pursue	-9428
▁rendez	-9429
▁landing	-9430
▁interrupt	-9431
iable	-9432
▁unif	-9433
▁brink	-9434
▁picks	-9435
ruption	-9436
▁israel	-9437
▁burdens	-9438
▁stumbled	-9439
hall	-9440
▁unity	-9441
▁delete	-9442
▁millen	-9443
▁descend	-9444
▁phoenix	-9445
hum	-9446
▁egy	-9447
▁verb	-9448
▁chunk	-9449
▁jesse	-9450
through	-9451
▁blurry	-9452
▁hoodie	-9453
▁runway	-9454
▁tearin	-9455
▁turtle	-9456
cont	-9457
rald	-9458
▁amor	-9459
▁flir	-9460
▁print	-9461
▁joined	-9462
▁scrape	-9463
▁unholy	-9464
▁bruises	-9465
▁evident	-9466
▁certainly	-9467
alm	-9468
▁brass	-9469
▁dates	-9470
▁marvel	-9471
▁dignity	-9472
▁lingers	-9473
▁tainted	-9474
▁sneaking	-9475
▁irrelevant	-9476
nas	-9477
▁nik	-9478
chable	-9479
▁crisis	-9480
▁huggin	-9481
▁females	-9482
▁hammers	-9483
▁consumed	-9484
▁contagious	-9485
mend	-9486
ogne	-9487
uses	-9488
▁yak	-9489
▁auto	-9490
▁acres	-9491
▁bumper	-9492
▁inject	-9493
-6	-9494
cope	-9495
▁clut	-9496
▁flaunt	-9497
▁bacardi	-9498
▁incompl	-9499
▁repping	-9500
▁stuffed	-9501
▁skipping	-9502
▁controlling	-9503
woy	-9504
▁forms	-9505
▁jacks	-9506
▁savin	-9507
▁twirl	-9508
▁burner	-9509
▁chords	-9510
inderella	-9511
▁overrated	-9512
▁ku	-9513
cest	-9514
block	-9515
▁elim	-9516
▁aisle	-9517
▁granny	-9518
▁bonfire	-9519
▁pressing	-9520
▁worrying	-9521
▁commercial	-9522
▁everythings	-9523
rob	-9524
meri	-9525
▁stan	-9526
▁wavy	-9527
▁cloth	-9528
▁peach	-9529
▁darkened	-9530
▁crucified	-9531
ef	-9532
▁1st	-9533
▁desce	-9534
▁harbor	-9535
▁genuine	-9536
▁concentrate	-9537
▁fasc	-9538
▁egypt	-9539
ictions	-9540
▁ringin	-9541
▁payback	-9542
▁showers	-9543
▁celebrity	-9544
adad	-9545
▁cray	-9546
▁intr	-9547
▁ramp	-9548
▁betcha	-9549
▁grounds	-9550
▁protected	-9551
▁commitment	-9552
▁angle	-9553
▁tails	-9554
▁infatu	-9555
▁luther	-9556
▁wheres	-9557
▁members	-9558
▁prettiest	-9559
ico	-9560
▁jake	-9561
▁jacob	-9562
▁stool	-9563
▁exists	-9564
▁native	-9565
▁therefore	-9566
asin	-9567
▁amp	-9568
▁aval	-9569
▁dissin	-9570
▁stages	-9571
▁grippin	-9572
▁penetrate	-9573
▁masterpiece	-9574
tale	-9575
this	-9576
▁tid	-9577
ipher	-9578
▁phen	-9579
▁oppon	-9580
▁siren	-9581
▁learnin	-9582
▁carnival	-9583
▁coop	-9584
▁slums	-9585
▁reigns	-9586
▁shifting	-9587
izer	-9588
take	-9589
▁jee	-9590
atives	-9591
▁shrink	-9592
▁smokes	-9593
▁glisten	-9594
▁skeleton	-9595
vs	-9596
▁anal	-9597
▁navy	-9598
▁draft	-9599
▁gleam	-9600
▁vietnam	-9601
▁facebook	-9602
▁hahahaha	-9603
▁incomplete	-9604
lift	-9605
▁ability	-9606
▁youngin	-9607
▁national	-9608
retta	-9609
▁vinyl	-9610
ante	-9611
▁nana	-9612
▁claws	-9613
▁harsh	-9614
▁irish	-9615
▁penit	-9616
▁martyr	-9617
▁newborn	-9618
▁outcome	-9619
▁oblivion	-9620
▁breathless	-9621
▁dots	-9622
▁arent	-9623
▁infer	-9624
▁sworn	-9625
▁damaged	-9626
▁masquer	-9627
talk	-9628
▁poems	-9629
▁matrix	-9630
▁stevie	-9631
▁rubbing	-9632
▁religious	-9633
arre	-9634
▁craz	-9635
▁dict	-9636
ctions	-9637
▁costs	-9638
▁splat	-9639
itution	-9640
▁actors	-9641
▁canyon	-9642
▁robbin	-9643
▁islands	-9644
▁stunting	-9645
amous	-9646
▁zion	-9647
▁ninja	-9648
▁widow	-9649
▁amazin	-9650
▁creeps	-9651
▁employ	-9652
▁castles	-9653
▁branches	-9654
▁tut	-9655
liest	-9656
▁lung	-9657
▁struct	-9658
▁cologne	-9659
▁eyelids	-9660
▁student	-9661
▁tortured	-9662
▁obviously	-9663
8,	-9664
pit	-9665
vet	-9666
▁ceme	-9667
▁navig	-9668
▁access	-9669
▁starve	-9670
▁carefully	-9671
▁responsible	-9672
rers	-9673
▁dna	-9674
▁bred	-9675
▁hack	-9676
▁backed	-9677
▁inspire	-9678
▁brilliant	-9679
▁philosophy	-9680
▁candlelight	-9681
▁cows	-9682
▁diff	-9683
▁epis	-9684
boards	-9685
▁streak	-9686
▁impression	-9687
bop	-9688
pen	-9689
▁inj	-9690
▁une	-9691
▁pane	-9692
▁site	-9693
▁cosmic	-9694
▁impact	-9695
▁conceal	-9696
▁reminder	-9697
gent	-9698
▁aura	-9699
▁goon	-9700
▁ripp	-9701
▁messy	-9702
▁choppers	-9703
▁genocide	-9704
▁tam	-9705
▁pies	-9706
▁gotcha	-9707
▁mobile	-9708
▁protest	-9709
▁russian	-9710
▁cleveland	-9711
-7	-9712
?'	-9713
ogy	-9714
rod	-9715
yea	-9716
▁ado	-9717
▁colt	-9718
▁diet	-9719
▁bould	-9720
▁grabbing	-9721
▁criticize	-9722
lass	-9723
▁abst	-9724
▁fend	-9725
▁scan	-9726
▁vomit	-9727
▁willy	-9728
▁counts	-9729
▁clarity	-9730
▁military	-9731
▁switches	-9732
▁underwater	-9733
icts	-9734
icals	-9735
▁soothe	-9736
▁intertw	-9737
▁lacking	-9738
yd	-9739
non	-9740
fest	-9741
▁24/	-9742
▁beth	-9743
▁peek	-9744
▁unus	-9745
▁bites	-9746
▁hover	-9747
▁prair	-9748
▁sermon	-9749
ani	-9750
iser	-9751
▁hub	-9752
oring	-9753
uition	-9754
▁aches	-9755
▁ganja	-9756
▁leash	-9757
▁sonny	-9758
▁spank	-9759
▁healed	-9760
▁reckon	-9761
▁breasts	-9762
▁cousins	-9763
▁improve	-9764
▁deception	-9765
fu	-9766
irk	-9767
yson	-9768
icken	-9769
▁cafe	-9770
▁defy	-9771
▁activ	-9772
▁condu	-9773
▁kevin	-9774
▁races	-9775
▁parkin	-9776
▁claimed	-9777
▁flaming	-9778
▁veteran	-9779
▁switchin	-9780
▁halloween	-9781
▁positions	-9782
▁1-2	-9783
▁rim	-9784
▁sonic	-9785
▁equals	-9786
▁petals	-9787
▁insides	-9788
▁reaches	-9789
▁scarface	-9790
▁intuition	-9791
kening	-9792
▁evenin	-9793
▁mathem	-9794
▁prodig	-9795
▁crossroads	-9796
▁intelligence	-9797
▁anth	-9798
▁clone	-9799
▁grove	-9800
▁toler	-9801
vention	-9802
▁minded	-9803
▁picket	-9804
▁rushed	-9805
▁ramblin	-9806
▁sweetly	-9807
▁japanese	-9808
▁pleasant	-9809
▁scratched	-9810
osis	-9811
grade	-9812
▁crop	-9813
▁actor	-9814
▁paras	-9815
▁finesse	-9816
▁stitches	-9817
door	-9818
▁coun	-9819
between	-9820
▁beings	-9821
▁manhat	-9822
▁crosses	-9823
▁crumbling	-9824
nda	-9825
uing	-9826
▁4th	-9827
▁krs	-9828
▁ves	-9829
▁baked	-9830
▁milit	-9831
▁cement	-9832
▁rollie	-9833
▁demonst	-9834
▁location	-9835
▁sly	-9836
▁stu	-9837
▁coca	-9838
▁ledge	-9839
▁withd	-9840
▁length	-9841
▁robert	-9842
▁dawning	-9843
has	-9844
▁orp	-9845
▁risen	-9846
oid	-9847
▁fraud	-9848
▁taxes	-9849
itching	-9850
▁report	-9851
▁baggage	-9852
▁unaware	-9853
▁shorties	-9854
▁pam	-9855
▁cmon	-9856
▁nerd	-9857
▁duckin	-9858
▁scarlet	-9859
▁washington	-9860
icop	-9861
▁fuc	-9862
pected	-9863
rating	-9864
▁peaches	-9865
▁praises	-9866
▁threats	-9867
▁literally	-9868
water	-9869
▁ching	-9870
▁marvin	-9871
▁flossin	-9872
▁shuffle	-9873
fol	-9874
▁4,	-9875
▁hut	-9876
▁ing	-9877
▁bows	-9878
▁lump	-9879
▁jolly	-9880
▁subtle	-9881
▁fresher	-9882
▁puffing	-9883
▁deceased	-9884
▁cinderella	-9885
▁boi	-9886
▁pork	-9887
▁yipp	-9888
▁idiot	-9889
▁tuned	-9890
▁parach	-9891
▁pirate	-9892
▁claimin	-9893
▁knuckle	-9894
war	-9895
▁ish	-9896
▁democ	-9897
▁sells	-9898
▁sluts	-9899
▁swine	-9900
▁skirts	-9901
▁swings	-9902
▁congrat	-9903
▁demands	-9904
▁ferrari	-9905
▁minimum	-9906
▁pussies	-9907
▁collection	-9908
enced	-9909
▁jeho	-9910
▁curren	-9911
▁remote	-9912
▁ignoring	-9913
▁rearview	-9914
▁substance	-9915
org	-9916
rit	-9917
rass	-9918
▁coma	-9919
▁riff	-9920
▁realm	-9921
▁causes	-9922
▁cuddle	-9923
▁rebels	-9924
▁helicop	-9925
▁rockstar	-9926
▁possessed	-9927
moon	-9928
▁diva	-9929
▁guid	-9930
▁reads	-9931
▁marked	-9932
▁tissue	-9933
▁balloon	-9934
▁climbin	-9935
▁slavery	-9936
quel	-9937
tube	-9938
▁hick	-9939
▁unsa	-9940
▁rehab	-9941
▁terms	-9942
▁tyson	-9943
▁freely	-9944
▁shaped	-9945
▁blackened	-9946
▁political	-9947
▁ambul	-9948
▁phara	-9949
▁saves	-9950
▁armaged	-9951
▁according	-9952
▁treasures	-9953
cap	-9954
▁qual	-9955
▁swam	-9956
▁graff	-9957
▁suspe	-9958
▁squares	-9959
▁campaign	-9960
▁repeating	-9961
▁underwear	-9962
▁goo	-9963
▁toke	-9964
itched	-9965
▁noble	-9966
▁guards	-9967
▁reload	-9968
▁versus	-9969
▁laundry	-9970
▁unusual	-9971
▁vanilla	-9972
▁gripping	-9973
▁frustrated	-9974
▁possession	-9975
inity	-9976
▁twee	-9977
▁blush	-9978
▁occur	-9979
▁worms	-9980
▁arrows	-9981
▁lounge	-9982
▁lurking	-9983
▁arrogant	-9984
▁unconditional	-9985
aph	-9986
sive	-9987
▁spa	-9988
birds	-9989
▁lind	-9990
▁moaning	-9991
▁speechless	-9992
wah	-9993
slave	-9994
▁anni	-9995
▁diab	-9996
▁fract	-9997
oration	-9998
▁needin	-9999
▁cabbage	-10000
▁charged	-10001
▁masturb	-10002
▁shoppin	-10003
▁gathering	-10004
▁wilderness	-10005
▁presidential	-10006
10	-10007
orous	-10008
ortin	-10009
▁cine	-10010
▁geah	-10011
▁iraq	-10012
▁rebu	-10013
▁sadly	-10014
▁runner	-10015
▁wither	-10016
▁sundown	-10017
▁coy	-10018
▁lava	-10019
▁shred	-10020
▁grammy	-10021
▁absence	-10022
▁hopping	-10023
▁obscene	-10024
▁streams	-10025
▁appeared	-10026
▁apocalypse	-10027
▁physically	-10028
▁production	-10029
▁scandalous	-10030
rot	-10031
cony	-10032
wild	-10033
▁mig	-10034
itated	-10035
sidered	-10036
▁flicks	-10037
▁ramble	-10038
▁cookies	-10039
▁doggone	-10040
▁mesmeri	-10041
▁reflections	-10042
▁consciousness	-10043
////////////////	-10044
good	-10045
keep	-10046
oved	-10047
▁cue	-10048
glass	-10049
▁meals	-10050
▁pinch	-10051
▁urban	-10052
▁crucif	-10053
▁mobbin	-10054
▁anyways	-10055
▁flashin	-10056
yyy	-10057
▁mayor	-10058
▁braids	-10059
▁consequences	-10060
mies	-10061
▁pup	-10062
rooms	-10063
▁bwoy	-10064
▁hoods	-10065
▁forehead	-10066
▁survivor	-10067
▁williams	-10068
▁'0	-10069
▁3x	-10070
umes	-10071
▁chime	-10072
▁crows	-10073
▁cuban	-10074
▁miche	-10075
▁pearly	-10076
▁respected	-10077
vir	-10078
▁err	-10079
▁aaah	-10080
▁anew	-10081
ictable	-10082
▁favors	-10083
▁technique	-10084
▁eb	-10085
will	-10086
▁aid	-10087
▁tig	-10088
▁debate	-10089
▁stitch	-10090
▁trophy	-10091
▁dresser	-10092
▁soaring	-10093
▁exciting	-10094
▁deceiving	-10095
1,	-10096
ji	-10097
cery	-10098
▁mah	-10099
▁sis	-10100
▁eleg	-10101
▁idle	-10102
▁impr	-10103
▁coats	-10104
▁liking	-10105
▁enchant	-10106
▁adventure	-10107
ssup	-10108
▁lob	-10109
▁magnet	-10110
▁safely	-10111
▁trippy	-10112
▁chimney	-10113
▁manhattan	-10114
▁considered	-10115
▁travelling	-10116
si	-10117
arks	-10118
▁chariot	-10119
▁concept	-10120
▁precise	-10121
▁sprayed	-10122
▁authority	-10123
len	-10124
itors	-10125
natural	-10126
▁beamer	-10127
▁leaking	-10128
▁shooters	-10129
▁wandered	-10130
▁senseless	-10131
tr	-10132
www	-10133
▁cind	-10134
▁distr	-10135
▁edges	-10136
▁weaker	-10137
▁balcony	-10138
▁details	-10139
▁dodging	-10140
▁manners	-10141
▁unbelie	-10142
▁warfare	-10143
▁childish	-10144
▁creative	-10145
▁backstage	-10146
▁rendezvous	-10147
alala	-10148
▁fran	-10149
▁isle	-10150
▁pond	-10151
▁gassed	-10152
▁malcol	-10153
▁softer	-10154
▁properly	-10155
▁entered	-10156
▁versace	-10157
▁dressing	-10158
▁exclusive	-10159
▁tul	-10160
icial	-10161
mouth	-10162
paper	-10163
▁bamb	-10164
▁clin	-10165
▁nicki	-10166
▁parall	-10167
▁tennis	-10168
▁unable	-10169
▁yeahhh	-10170
▁pharaoh	-10171
▁valleys	-10172
▁prescription	-10173
net	-10174
▁feat	-10175
▁wool	-10176
▁formed	-10177
▁orphan	-10178
▁malcolm	-10179
▁fortress	-10180
▁autograph	-10181
▁controlled	-10182
▁vit	-10183
▁grat	-10184
▁laser	-10185
▁outfit	-10186
▁polite	-10187
▁repair	-10188
▁spells	-10189
▁sweaty	-10190
▁plotting	-10191
▁distraction	-10192
aya	-10193
ouch	-10194
▁jos	-10195
▁glare	-10196
▁whassup	-10197
▁hangover	-10198
lam	-10199
▁yip	-10200
igned	-10201
▁brawl	-10202
▁dukes	-10203
▁hustla	-10204
▁maiden	-10205
▁procla	-10206
▁delicate	-10207
▁received	-10208
win	-10209
gery	-10210
▁ath	-10211
ograp	-10212
▁boil	-10213
▁hawa	-10214
▁joey	-10215
▁splin	-10216
▁former	-10217
▁armageddon	-10218
▁footprints	-10219
▁particular	-10220
9,	-10221
inky	-10222
turn	-10223
▁lag	-10224
ending	-10225
▁await	-10226
▁whites	-10227
▁delivery	-10228
arch	-10229
nnnn	-10230
▁eazy	-10231
▁labe	-10232
▁corny	-10233
▁motive	-10234
▁fullest	-10235
▁arrested	-10236
▁deceived	-10237
▁patterns	-10238
atches	-10239
▁astron	-10240
▁banner	-10241
▁subway	-10242
▁lens	-10243
ffered	-10244
shield	-10245
▁spree	-10246
▁apathy	-10247
▁attend	-10248
▁reside	-10249
▁classes	-10250
▁centuries	-10251
▁delivered	-10252
say	-10253
ford	-10254
loat	-10255
oman	-10256
▁leb	-10257
▁nig	-10258
▁snoo	-10259
▁enslave	-10260
▁tactics	-10261
▁awaiting	-10262
▁holidays	-10263
▁remembers	-10264
▁punishment	-10265
▁'6	-10266
▁uno	-10267
▁suede	-10268
▁token	-10269
▁catast	-10270
▁chevro	-10271
▁fridge	-10272
▁camouflage	-10273
▁ammo	-10274
▁alibi	-10275
▁cakes	-10276
▁exerc	-10277
▁preser	-10278
▁rooster	-10279
▁mastered	-10280
▁photographs	-10281
char	-10282
▁sacks	-10283
▁nailed	-10284
▁combination	-10285
▁filth	-10286
▁sighs	-10287
▁teens	-10288
▁whale	-10289
▁ransom	-10290
▁spoiled	-10291
▁swervin	-10292
▁winters	-10293
▁brighten	-10294
▁homegirl	-10295
▁suburban	-10296
▁strongest	-10297
toe	-10298
ckey	-10299
lent	-10300
▁pes	-10301
ately	-10302
quered	-10303
▁amate	-10304
▁actual	-10305
▁jolene	-10306
▁flooded	-10307
▁listens	-10308
▁sandwich	-10309
▁circumstance	-10310
▁heartbreaker	-10311
ases	-10312
stra	-10313
▁gran	-10314
▁mice	-10315
▁frail	-10316
▁nappy	-10317
▁trife	-10318
▁albums	-10319
▁landsc	-10320
▁pedest	-10321
▁conflict	-10322
nels	-10323
thang	-10324
▁momm	-10325
▁flare	-10326
▁includ	-10327
▁statue	-10328
▁tryina	-10329
▁execution	-10330
▁terrorist	-10331
▁windshield	-10332
▁croc	-10333
▁diggy	-10334
▁quits	-10335
▁taller	-10336
▁corpses	-10337
▁youtube	-10338
▁cleaning	-10339
▁homeboys	-10340
▁chevrolet	-10341
▁limousine	-10342
▁differently	-10343
nac	-10344
▁500	-10345
▁slum	-10346
▁texts	-10347
▁crunch	-10348
▁walker	-10349
epr	-10350
ickers	-10351
▁jumps	-10352
▁sandy	-10353
▁austin	-10354
▁tattooed	-10355
▁believers	-10356
ata	-10357
buck	-10358
▁guap	-10359
▁banjo	-10360
▁crist	-10361
▁coolin	-10362
▁excell	-10363
▁prosper	-10364
▁shittin	-10365
▁cemetery	-10366
▁suffocate	-10367
▁discussion	-10368
▁acknowledge	-10369
▁sunk	-10370
▁wheat	-10371
▁eighth	-10372
▁paranoia	-10373
▁vs	-10374
▁mim	-10375
▁wop	-10376
▁trim	-10377
▁handful	-10378
▁fabulous	-10379
▁penitenti	-10380
▁communication	-10381
oli	-10382
ptic	-10383
balls	-10384
▁felon	-10385
▁dissed	-10386
▁offend	-10387
▁dresses	-10388
hens	-10389
▁ivy	-10390
▁bayou	-10391
▁mystic	-10392
▁prophets	-10393
▁fashioned	-10394
▁destroying	-10395
▁interested	-10396
▁forevermore	-10397
▁mothafuckas	-10398
▁nag	-10399
cture	-10400
floor	-10401
▁inher	-10402
▁shotty	-10403
▁triumph	-10404
▁shepherd	-10405
▁medication	-10406
▁representing	-10407
isc	-10408
▁cale	-10409
▁pics	-10410
▁raid	-10411
▁agent	-10412
▁cheet	-10413
▁annihil	-10414
▁blurred	-10415
▁frog	-10416
▁pope	-10417
▁reun	-10418
▁babys	-10419
▁blist	-10420
▁gloss	-10421
▁misle	-10422
▁tobac	-10423
▁dearly	-10424
▁feared	-10425
▁ponder	-10426
▁sinkin	-10427
▁fiendin	-10428
▁workers	-10429
▁elements	-10430
▁exception	-10431
▁reminding	-10432
▁unexpected	-10433
▁snack	-10434
▁swarm	-10435
▁rocker	-10436
▁superst	-10437
▁boundaries	-10438
lee	-10439
▁chokin	-10440
▁crumbs	-10441
▁ritual	-10442
▁truths	-10443
▁produce	-10444
▁unspoken	-10445
iley	-10446
▁joseph	-10447
▁recite	-10448
▁stench	-10449
▁dipping	-10450
▁reverend	-10451
▁standard	-10452
▁suffered	-10453
▁depending	-10454
▁mentioned	-10455
gic	-10456
▁attic	-10457
▁watts	-10458
aculate	-10459
▁blowed	-10460
▁robbery	-10461
▁downfall	-10462
▁imagined	-10463
▁population	-10464
crow	-10465
▁num	-10466
▁inha	-10467
▁wooh	-10468
▁fillin	-10469
▁fixing	-10470
▁bananas	-10471
▁blasphe	-10472
▁introduced	-10473
tic	-10474
hook	-10475
idas	-10476
mmmm	-10477
▁lan	-10478
▁rak	-10479
enses	-10480
▁jess	-10481
▁noel	-10482
▁tent	-10483
▁cinna	-10484
▁strum	-10485
▁feeble	-10486
▁ironic	-10487
▁smokey	-10488
▁borders	-10489
▁drained	-10490
▁foreplay	-10491
▁pleading	-10492
▁prisoners	-10493
6,	-10494
imo	-10495
beha	-10496
hero	-10497
▁skr	-10498
press	-10499
▁clash	-10500
▁rails	-10501
▁spain	-10502
▁blessin	-10503
▁codeine	-10504
phe	-10505
▁bb	-10506
rels	-10507
▁wooo	-10508
▁bikin	-10509
▁statement	-10510
▁dc	-10511
amine	-10512
▁usin	-10513
▁flush	-10514
▁havoc	-10515
▁infant	-10516
▁nearer	-10517
▁straps	-10518
▁stagger	-10519
▁mattered	-10520
▁ambulance	-10521
▁untouchable	-10522
ulu	-10523
▁osc	-10524
heard	-10525
wheel	-10526
▁ital	-10527
▁mang	-10528
▁scum	-10529
▁owner	-10530
▁thigh	-10531
▁pursuit	-10532
▁roaming	-10533
▁infected	-10534
atra	-10535
▁aka	-10536
maker	-10537
order	-10538
▁ridd	-10539
▁woop	-10540
▁jiggy	-10541
▁disreg	-10542
▁drifted	-10543
uuu	-10544
anne	-10545
lime	-10546
reed	-10547
▁facin	-10548
▁rumor	-10549
▁suppl	-10550
▁ip	-10551
llar	-10552
▁dos	-10553
▁snee	-10554
▁delir	-10555
▁simon	-10556
▁snuff	-10557
▁cypher	-10558
▁firing	-10559
▁transp	-10560
▁beloved	-10561
▁concert	-10562
▁daytime	-10563
▁division	-10564
▁springtime	-10565
iro	-10566
lehem	-10567
▁fled	-10568
▁sele	-10569
▁skunk	-10570
▁warmer	-10571
▁caroline	-10572
▁cautious	-10573
▁allegiance	-10574
▁desperately	-10575
olph	-10576
akers	-10577
▁branch	-10578
▁chanel	-10579
▁jehovah	-10580
▁midwest	-10581
▁franklin	-10582
▁alligator	-10583
▁criminals	-10584
▁masquerade	-10585
blood	-10586
▁noah	-10587
▁radi	-10588
▁trau	-10589
▁stale	-10590
▁bandit	-10591
▁dating	-10592
▁rockets	-10593
▁extraord	-10594
▁forgiving	-10595
▁mj	-10596
amas	-10597
▁carp	-10598
▁bitin	-10599
▁sched	-10600
▁baking	-10601
▁jackie	-10602
▁pierce	-10603
▁sublim	-10604
▁clappin	-10605
▁skyline	-10606
▁compares	-10607
▁lifeline	-10608
▁strugglin	-10609
▁questioning	-10610
pot	-10611
▁clim	-10612
▁exes	-10613
▁waka	-10614
▁larry	-10615
▁boomer	-10616
▁lotion	-10617
▁sinning	-10618
▁tractor	-10619
▁twinkle	-10620
▁triggers	-10621
▁bethlehem	-10622
nth	-10623
▁loo	-10624
ckets	-10625
eland	-10626
▁dean	-10627
▁ruled	-10628
▁theory	-10629
▁traces	-10630
▁battery	-10631
▁lasting	-10632
▁robbing	-10633
▁graffiti	-10634
▁arab	-10635
▁goog	-10636
itable	-10637
▁staff	-10638
▁rainin	-10639
▁scenery	-10640
▁tightly	-10641
▁guidance	-10642
irm	-10643
▁adap	-10644
▁afro	-10645
▁asht	-10646
▁data	-10647
▁term	-10648
▁delta	-10649
▁nause	-10650
▁orbit	-10651
▁racin	-10652
▁ordered	-10653
▁outrage	-10654
▁tougher	-10655
▁battered	-10656
▁unfortun	-10657
▁sensitive	-10658
▁gn	-10659
▁daz	-10660
fucka	-10661
▁rows	-10662
▁bluepr	-10663
▁brainw	-10664
▁charming	-10665
▁clinging	-10666
▁constell	-10667
era	-10668
▁5'	-10669
otes	-10670
▁swan	-10671
▁bever	-10672
▁gator	-10673
▁dagger	-10674
▁loosen	-10675
▁rubbin	-10676
▁theirs	-10677
▁grabbin	-10678
▁relieve	-10679
▁stompin	-10680
▁deserved	-10681
▁underest	-10682
▁conquered	-10683
cre	-10684
▁bm	-10685
▁baba	-10686
▁gosh	-10687
▁phar	-10688
▁sust	-10689
▁bathe	-10690
▁clues	-10691
▁diary	-10692
▁backing	-10693
▁prevent	-10694
▁schemin	-10695
yed	-10696
math	-10697
▁bap	-10698
▁homo	-10699
▁oath	-10700
▁pens	-10701
▁subt	-10702
orghin	-10703
▁iller	-10704
▁linen	-10705
▁milky	-10706
▁spits	-10707
▁ultra	-10708
▁apples	-10709
▁trails	-10710
▁beliefs	-10711
▁bubbles	-10712
▁defined	-10713
▁escaped	-10714
▁observe	-10715
▁prairie	-10716
▁shackles	-10717
ride	-10718
skin	-10719
▁hem	-10720
▁mak	-10721
▁scop	-10722
▁fours	-10723
onymous	-10724
▁estate	-10725
▁grands	-10726
▁engines	-10727
▁treason	-10728
▁lighters	-10729
▁smashing	-10730
▁preachers	-10731
▁contemplating	-10732
▁uk	-10733
▁moth	-10734
▁radar	-10735
osition	-10736
▁lightly	-10737
▁swaying	-10738
▁meantime	-10739
with	-10740
▁bums	-10741
▁caes	-10742
▁chug	-10743
▁huff	-10744
▁mobb	-10745
▁monu	-10746
▁pins	-10747
▁ther	-10748
▁sciss	-10749
urities	-10750
▁halluc	-10751
▁thumbs	-10752
▁refused	-10753
▁hollerin	-10754
▁imperfect	-10755
▁touchdown	-10756
▁corruption	-10757
mage	-10758
weed	-10759
▁conj	-10760
▁fret	-10761
▁lala	-10762
▁vital	-10763
▁beasts	-10764
▁virtue	-10765
ribution	-10766
▁severed	-10767
▁embarrass	-10768
▁wasteland	-10769
▁collecting	-10770
▁lamborghin	-10771
▁technology	-10772
▁explanation	-10773
ador	-10774
▁trey	-10775
▁intim	-10776
▁royce	-10777
▁sarah	-10778
▁banger	-10779
▁drawer	-10780
▁eagles	-10781
▁comeback	-10782
▁buns	-10783
▁hous	-10784
▁whod	-10785
aurant	-10786
▁doves	-10787
▁limbo	-10788
▁shave	-10789
▁eclipse	-10790
▁shoutout	-10791
▁steadily	-10792
▁penthouse	-10793
▁strippers	-10794
arin	-10795
bull	-10796
▁kry	-10797
▁tah	-10798
▁circu	-10799
▁foggy	-10800
▁snaps	-10801
▁twent	-10802
▁huntin	-10803
▁slidin	-10804
▁guessed	-10805
▁happier	-10806
▁misbeha	-10807
▁rooftop	-10808
▁gambling	-10809
llll	-10810
▁yow	-10811
▁moons	-10812
▁rookie	-10813
▁crawled	-10814
▁dismiss	-10815
▁ribbons	-10816
eted	-10817
▁tet	-10818
▁braz	-10819
▁trif	-10820
▁lifts	-10821
▁puppy	-10822
▁respon	-10823
▁attacks	-10824
▁draggin	-10825
▁ducking	-10826
▁infamous	-10827
▁lightnin	-10828
▁stations	-10829
▁tomorrows	-10830
▁restaurant	-10831
cca	-10832
cop	-10833
corn	-10834
show	-10835
▁dwe	-10836
▁fug	-10837
▁pry	-10838
▁golf	-10839
▁hint	-10840
▁absor	-10841
▁ambit	-10842
▁avail	-10843
▁renew	-10844
▁bosses	-10845
▁brutal	-10846
▁contra	-10847
▁learnt	-10848
▁custome	-10849
▁poisoned	-10850
▁throwback	-10851
▁frightening	-10852
inte	-10853
▁nada	-10854
▁juliet	-10855
▁licked	-10856
▁trends	-10857
▁operation	-10858
illo	-10859
▁eth	-10860
▁cric	-10861
▁infra	-10862
▁rival	-10863
▁growth	-10864
▁modest	-10865
▁vagina	-10866
▁cracker	-10867
▁shorter	-10868
▁sublime	-10869
▁horrible	-10870
▁relentless	-10871
▁vibrations	-10872
inem	-10873
▁hud	-10874
▁pau	-10875
green	-10876
called	-10877
▁lambo	-10878
▁rasta	-10879
▁trigga	-10880
▁bizarre	-10881
▁surgery	-10882
▁thugged	-10883
▁atlantic	-10884
▁crucifix	-10885
▁superior	-10886
▁attracted	-10887
▁relations	-10888
▁surviving	-10889
aye	-10890
iar	-10891
▁5th	-10892
▁chir	-10893
▁mich	-10894
▁pint	-10895
tender	-10896
▁genie	-10897
▁manic	-10898
▁schoo	-10899
▁swamp	-10900
▁magnum	-10901
▁chatter	-10902
▁diction	-10903
fy	-10904
▁ral	-10905
amins	-10906
iques	-10907
▁tint	-10908
▁chand	-10909
▁basics	-10910
▁joyful	-10911
▁unsaid	-10912
▁judging	-10913
▁cannibal	-10914
▁engineer	-10915
▁jamaican	-10916
▁professor	-10917
▁scratches	-10918
▁strangest	-10919
▁perception	-10920
▁approaching	-10921
agon	-10922
▁vick	-10923
▁dinos	-10924
▁juven	-10925
▁telly	-10926
▁giants	-10927
▁aggress	-10928
▁hugging	-10929
▁tobacco	-10930
▁uniform	-10931
▁parallel	-10932
▁portrait	-10933
▁reflecting	-10934
mond	-10935
tact	-10936
▁wad	-10937
▁robe	-10938
▁afloat	-10939
▁dreads	-10940
▁hennes	-10941
▁phenomen	-10942
▁blindfold	-10943
▁2nd	-10944
▁cee	-10945
▁cul	-10946
eable	-10947
▁andy	-10948
▁pooh	-10949
▁glows	-10950
▁initi	-10951
▁tummy	-10952
▁windy	-10953
▁breezy	-10954
▁vessel	-10955
▁conspir	-10956
▁passage	-10957
▁highways	-10958
▁graduated	-10959
ima	-10960
erie	-10961
hips	-10962
rous	-10963
▁nov	-10964
arazz	-10965
▁fren	-10966
▁added	-10967
▁aston	-10968
▁repet	-10969
▁silen	-10970
▁canada	-10971
▁thomas	-10972
▁bathing	-10973
▁choppin	-10974
▁currency	-10975
▁intimate	-10976
▁offended	-10977
▁riverside	-10978
gets	-10979
high	-10980
vine	-10981
▁bish	-10982
▁herd	-10983
▁unit	-10984
nother	-10985
ulated	-10986
▁eaten	-10987
▁monte	-10988
▁mirage	-10989
▁actress	-10990
▁casting	-10991
▁mocking	-10992
▁tighten	-10993
▁sinister	-10994
▁skeletons	-10995
▁vig	-10996
write	-10997
▁darn	-10998
▁herbs	-10999
▁stard	-11000
▁wiped	-11001
▁blocked	-11002
▁drastic	-11003
▁sneakin	-11004
▁magnific	-11005
nic	-11006
uced	-11007
giving	-11008
▁snare	-11009
▁lebron	-11010
▁produced	-11011
▁aftermath	-11012
▁mojo	-11013
▁reco	-11014
▁dopest	-11015
▁prices	-11016
▁limited	-11017
▁pacific	-11018
▁departed	-11019
▁exercise	-11020
▁neighbour	-11021
▁parachute	-11022
rrr	-11023
adel	-11024
ohoh	-11025
▁wey	-11026
▁rump	-11027
rybody	-11028
▁barry	-11029
▁bount	-11030
▁lotto	-11031
▁melts	-11032
▁teena	-11033
▁fascin	-11034
▁origin	-11035
▁sought	-11036
▁assault	-11037
▁bandana	-11038
▁pleasing	-11039
▁fairytale	-11040
won	-11041
iffe	-11042
mart	-11043
▁aer	-11044
▁fon	-11045
▁scal	-11046
▁shaq	-11047
▁ducks	-11048
▁buckin	-11049
▁lowkey	-11050
▁werent	-11051
alalalal	-11052
▁mercury	-11053
▁smellin	-11054
▁cinnamon	-11055
▁struggles	-11056
▁suspicious	-11057
12	-11058
mur	-11059
inch	-11060
▁vel	-11061
black	-11062
▁cath	-11063
▁crab	-11064
▁dada	-11065
▁stal	-11066
▁unre	-11067
▁yung	-11068
▁tweak	-11069
▁peanut	-11070
▁promot	-11071
▁quicks	-11072
▁bitchin	-11073
▁cowgirl	-11074
▁intoxicated	-11075
cet	-11076
cro	-11077
▁lid	-11078
▁yaw	-11079
▁barb	-11080
▁inno	-11081
encies	-11082
▁awoke	-11083
▁monop	-11084
▁divorce	-11085
▁matching	-11086
▁swerving	-11087
▁penitentiary	-11088
uf	-11089
oly	-11090
▁asse	-11091
▁fiery	-11092
▁teams	-11093
▁ginger	-11094
▁thatll	-11095
ications	-11096
▁blooded	-11097
▁accepted	-11098
▁continent	-11099
▁standards	-11100
▁responsibility	-11101
▁dag	-11102
▁ion	-11103
class	-11104
isons	-11105
▁heap	-11106
verted	-11107
▁aloud	-11108
▁missy	-11109
▁kenned	-11110
▁benefit	-11111
▁punches	-11112
▁saddest	-11113
▁wannabe	-11114
las	-11115
necks	-11116
▁furn	-11117
▁hops	-11118
▁levi	-11119
▁belle	-11120
▁salad	-11121
▁donkey	-11122
▁floats	-11123
▁folded	-11124
▁lawyers	-11125
▁lottery	-11126
▁roaches	-11127
▁systems	-11128
▁william	-11129
▁blackout	-11130
▁conclusion	-11131
your	-11132
▁cozy	-11133
▁lily	-11134
▁freddy	-11135
▁spectac	-11136
▁destruct	-11137
▁countless	-11138
▁obstacles	-11139
▁ell	-11140
▁twer	-11141
▁adios	-11142
▁aggra	-11143
▁traps	-11144
▁fierce	-11145
▁jockin	-11146
▁plants	-11147
▁untold	-11148
▁archite	-11149
▁dungeon	-11150
▁baptized	-11151
▁neglected	-11152
▁borderline	-11153
iii	-11154
▁eva	-11155
bread	-11156
arazzi	-11157
▁comme	-11158
▁jigga	-11159
▁causin	-11160
▁chapel	-11161
▁hooker	-11162
▁massac	-11163
▁blaming	-11164
▁related	-11165
▁francisco	-11166
pop	-11167
▁jaz	-11168
stones	-11169
▁phill	-11170
▁hummer	-11171
▁peepin	-11172
▁sequel	-11173
▁episode	-11174
▁indians	-11175
arse	-11176
tonk	-11177
▁ova	-11178
▁beyon	-11179
▁boards	-11180
▁analyze	-11181
▁delusion	-11182
▁compliment	-11183
▁sacrificed	-11184
▁dipl	-11185
arable	-11186
▁cater	-11187
▁cocks	-11188
▁divin	-11189
▁shimmy	-11190
▁barking	-11191
▁springs	-11192
▁recorded	-11193
▁tempting	-11194
▁dancefloor	-11195
▁resurrection	-11196
nal	-11197
▁28	-11198
hake	-11199
izin	-11200
olis	-11201
front	-11202
nches	-11203
▁frau	-11204
▁libs	-11205
▁limo	-11206
▁plum	-11207
▁pout	-11208
ushing	-11209
▁caged	-11210
▁tidal	-11211
▁polish	-11212
▁beaches	-11213
▁crippled	-11214
ele	-11215
coat	-11216
▁dow	-11217
▁meg	-11218
illed	-11219
▁chau	-11220
▁poly	-11221
▁sant	-11222
▁dawgs	-11223
▁drool	-11224
▁oblig	-11225
▁yodel	-11226
▁shined	-11227
▁tickin	-11228
▁earthly	-11229
▁privile	-11230
▁clothing	-11231
▁yesterdays	-11232
then	-11233
when	-11234
▁hue	-11235
▁lew	-11236
▁syll	-11237
▁yous	-11238
▁fangs	-11239
▁flips	-11240
▁grande	-11241
▁integr	-11242
▁rebell	-11243
▁snowfl	-11244
▁fleeting	-11245
▁mainstream	-11246
▁sket	-11247
formed	-11248
▁aimed	-11249
▁dandy	-11250
▁dolly	-11251
▁gazing	-11252
▁pacing	-11253
▁result	-11254
▁soakin	-11255
▁dashboard	-11256
▁ancest	-11257
▁parent	-11258
▁envision	-11259
▁someplace	-11260
itas	-11261
▁slid	-11262
▁acted	-11263
▁roach	-11264
▁souven	-11265
ological	-11266
▁cleared	-11267
▁federal	-11268
▁removed	-11269
▁fiending	-11270
kick	-11271
▁hier	-11272
▁cobra	-11273
▁crust	-11274
believe	-11275
▁claims	-11276
▁dammit	-11277
▁rained	-11278
▁gambler	-11279
▁distress	-11280
▁honeymoon	-11281
enin	-11282
▁synd	-11283
▁tran	-11284
▁femin	-11285
▁intact	-11286
▁parole	-11287
▁ruckus	-11288
▁covering	-11289
▁operator	-11290
▁demanding	-11291
▁mysteries	-11292
▁irr	-11293
▁uhhh	-11294
▁judas	-11295
▁stoop	-11296
▁flocka	-11297
▁gators	-11298
▁capable	-11299
▁rudolph	-11300
▁condemned	-11301
yay	-11302
kins	-11303
daddy	-11304
▁amber	-11305
▁envir	-11306
▁lucid	-11307
▁iphone	-11308
▁patrol	-11309
▁shrimp	-11310
▁hopeful	-11311
▁signals	-11312
▁headache	-11313
▁disregard	-11314
▁scriptures	-11315
▁lamborghini	-11316
▁disappearing	-11317
▁911	-11318
▁kra	-11319
▁apes	-11320
▁fest	-11321
▁vert	-11322
▁lakes	-11323
▁calcul	-11324
▁casset	-11325
regation	-11326
▁renegade	-11327
▁immaculate	-11328
▁possibilities	-11329
▁26	-11330
part	-11331
hhhhh	-11332
▁alas	-11333
▁pest	-11334
▁pots	-11335
▁ripe	-11336
▁sess	-11337
▁bonds	-11338
▁hectic	-11339
▁hounds	-11340
▁scares	-11341
▁bargain	-11342
▁british	-11343
▁grandmother	-11344
year	-11345
▁fris	-11346
▁juan	-11347
▁sank	-11348
▁creed	-11349
▁yeahh	-11350
▁cleans	-11351
▁morals	-11352
▁apology	-11353
▁arrange	-11354
▁unleash	-11355
▁weighing	-11356
lude	-11357
nuff	-11358
▁luh	-11359
scent	-11360
▁alice	-11361
▁bleak	-11362
▁elite	-11363
▁notor	-11364
▁carbon	-11365
▁factor	-11366
▁returns	-11367
▁superhero	-11368
eva	-11369
▁pm	-11370
▁nit	-11371
ilton	-11372
▁dren	-11373
▁gore	-11374
▁opera	-11375
▁hyster	-11376
▁reeling	-11377
▁wealthy	-11378
▁wretched	-11379
▁composure	-11380
▁sanctuary	-11381
peat	-11382
▁owl	-11383
▁sid	-11384
▁hoot	-11385
▁hairs	-11386
▁adidas	-11387
▁shaken	-11388
▁tippin	-11389
▁environ	-11390
▁loosing	-11391
▁spreads	-11392
▁download	-11393
give	-11394
itin	-11395
pple	-11396
adium	-11397
▁harp	-11398
▁icon	-11399
▁jews	-11400
▁moist	-11401
▁recom	-11402
▁sawed	-11403
▁findin	-11404
▁mackin	-11405
▁staten	-11406
▁sweats	-11407
▁boiling	-11408
▁hypnotize	-11409
---	-11410
hah	-11411
scr	-11412
lets	-11413
erson	-11414
▁bicy	-11415
▁cycl	-11416
▁keen	-11417
▁yayo	-11418
▁utter	-11419
▁devoted	-11420
▁zombies	-11421
▁clapping	-11422
hea	-11423
oci	-11424
▁unh	-11425
▁trou	-11426
around	-11427
▁bikes	-11428
▁barbie	-11429
▁essent	-11430
▁scales	-11431
▁arguing	-11432
▁faceless	-11433
▁mock	-11434
▁rally	-11435
▁adding	-11436
▁flyest	-11437
▁grocery	-11438
▁deranged	-11439
▁inclined	-11440
▁purchase	-11441
▁steering	-11442
▁zig	-11443
birth	-11444
▁24/7	-11445
▁bats	-11446
▁uber	-11447
▁chart	-11448
▁codes	-11449
▁crips	-11450
▁concea	-11451
▁teasing	-11452
▁tossing	-11453
▁witches	-11454
▁profound	-11455
▁structure	-11456
umin	-11457
▁das	-11458
ptions	-11459
▁starvin	-11460
▁juvenile	-11461
▁sniffing	-11462
▁cavi	-11463
▁yield	-11464
▁eminem	-11465
▁jammin	-11466
▁lasted	-11467
▁worthwhile	-11468
itta	-11469
racy	-11470
▁ese	-11471
gonna	-11472
▁angu	-11473
▁yawn	-11474
▁ether	-11475
▁haste	-11476
▁refug	-11477
▁hitler	-11478
▁kurupt	-11479
▁marath	-11480
▁pigeon	-11481
▁tapped	-11482
▁cleanse	-11483
▁benefits	-11484
▁boomerang	-11485
▁insecurities	-11486
▁pilgr	-11487
▁accent	-11488
▁closes	-11489
▁resent	-11490
▁blunted	-11491
och	-11492
ssss	-11493
▁mia	-11494
▁shh	-11495
▁slime	-11496
olution	-11497
▁advert	-11498
▁angles	-11499
▁faults	-11500
▁unsure	-11501
▁austral	-11502
▁normally	-11503
▁aggression	-11504
▁negativity	-11505
▁motherfucka	-11506
uces	-11507
▁hov	-11508
▁sodom	-11509
▁apollo	-11510
▁bushes	-11511
▁lollip	-11512
▁losses	-11513
▁trading	-11514
▁headlines	-11515
▁separated	-11516
rows	-11517
rophe	-11518
▁dunn	-11519
▁mute	-11520
▁rave	-11521
▁succ	-11522
▁porno	-11523
▁depress	-11524
▁outlaws	-11525
▁pissing	-11526
▁smother	-11527
▁nameless	-11528
▁training	-11529
▁unforget	-11530
▁interview	-11531
▁occupation	-11532
aser	-11533
tone	-11534
zone	-11535
▁ein	-11536
▁eup	-11537
▁sax	-11538
▁carl	-11539
▁nipp	-11540
▁sper	-11541
▁synt	-11542
bridge	-11543
▁brian	-11544
▁cuffs	-11545
▁decor	-11546
▁pluck	-11547
▁roman	-11548
▁crutch	-11549
▁felony	-11550
▁margar	-11551
▁readin	-11552
▁singers	-11553
▁tornado	-11554
▁violate	-11555
▁meditate	-11556
▁countdown	-11557
▁fantasize	-11558
▁sincerely	-11559
fr	-11560
new	-11561
▁44	-11562
ials	-11563
they	-11564
acity	-11565
▁scam	-11566
▁fable	-11567
▁tamed	-11568
▁coppin	-11569
▁fisher	-11570
▁grudge	-11571
▁unload	-11572
▁braggin	-11573
▁combine	-11574
▁flavors	-11575
▁rebuild	-11576
▁seventy	-11577
▁slammed	-11578
▁twistin	-11579
▁rambling	-11580
▁restrain	-11581
▁whirlwind	-11582
▁disgusting	-11583
▁unbelievable	-11584
aman	-11585
oura	-11586
▁amid	-11587
▁handy	-11588
▁shaky	-11589
▁vibin	-11590
▁deaths	-11591
▁impala	-11592
▁larger	-11593
▁convert	-11594
▁lunatic	-11595
▁sparkling	-11596
ndo	-11597
ilee	-11598
▁wil	-11599
ively	-11600
▁vile	-11601
▁indec	-11602
▁shone	-11603
▁barren	-11604
▁brandy	-11605
▁client	-11606
▁events	-11607
▁nicest	-11608
▁superf	-11609
▁theyve	-11610
standing	-11611
▁gracious	-11612
icit	-11613
rier	-11614
▁ens	-11615
▁jub	-11616
▁dorm	-11617
▁rips	-11618
▁idols	-11619
▁inhib	-11620
▁encore	-11621
▁thrust	-11622
▁astound	-11623
▁doubted	-11624
▁muscles	-11625
▁brightly	-11626
▁landlord	-11627
▁repeated	-11628
▁mp	-11629
rive	-11630
hanna	-11631
▁anne	-11632
ission	-11633
▁blizz	-11634
▁oprah	-11635
▁bustas	-11636
▁mutual	-11637
▁choosin	-11638
▁furious	-11639
▁manager	-11640
▁signing	-11641
▁chemicals	-11642
▁paparazzi	-11643
▁bitterness	-11644
uk	-11645
▁exal	-11646
▁wept	-11647
rising	-11648
▁tasty	-11649
ulating	-11650
▁chilly	-11651
▁morgue	-11652
▁propag	-11653
▁writes	-11654
▁sweetie	-11655
▁trumpet	-11656
amo	-11657
lac	-11658
▁10,	-11659
▁org	-11660
arily	-11661
▁clit	-11662
▁pand	-11663
▁perm	-11664
belief	-11665
resses	-11666
▁crept	-11667
▁maine	-11668
▁slump	-11669
▁uncom	-11670
▁whoah	-11671
▁brazil	-11672
▁treble	-11673
▁tropical	-11674
▁metaphors	-11675
▁quicksand	-11676
▁contemplate	-11677
laze	-11678
oose	-11679
▁gulf	-11680
▁masc	-11681
▁sequ	-11682
aneous	-11683
▁ivory	-11684
▁blamed	-11685
▁caesar	-11686
▁kindly	-11687
▁cynical	-11688
▁medical	-11689
▁trickin	-11690
▁controls	-11691
▁crackers	-11692
▁fireflies	-11693
▁movements	-11694
▁70	-11695
assed	-11696
views	-11697
▁shhh	-11698
uckers	-11699
▁error	-11700
▁dissing	-11701
ification	-11702
▁response	-11703
▁settling	-11704
▁precision	-11705
ando	-11706
▁wea	-11707
never	-11708
opath	-11709
▁guru	-11710
▁pitt	-11711
▁tilt	-11712
amples	-11713
▁ammun	-11714
▁sixth	-11715
▁frankie	-11716
▁sharper	-11717
▁murderous	-11718
burg	-11719
hort	-11720
unit	-11721
▁veh	-11722
chers	-11723
pting	-11724
▁altern	-11725
▁burger	-11726
▁cancel	-11727
▁arrival	-11728
▁blooming	-11729
mates	-11730
▁balt	-11731
▁fath	-11732
▁remy	-11733
▁wade	-11734
locked	-11735
▁stunna	-11736
▁cleaned	-11737
▁hostile	-11738
▁plottin	-11739
▁skipped	-11740
▁unbreak	-11741
▁michigan	-11742
▁blasphemy	-11743
oca	-11744
lane	-11745
▁ced	-11746
▁fleet	-11747
▁insect	-11748
▁outrun	-11749
▁rubble	-11750
▁yankee	-11751
iiiiiiii	-11752
▁ashtray	-11753
▁chewing	-11754
▁shivers	-11755
▁revealing	-11756
▁outrageous	-11757
▁yourselves	-11758
▁infest	-11759
▁rebound	-11760
▁proclaim	-11761
▁travelled	-11762
iki	-11763
▁gw	-11764
alls	-11765
immer	-11766
opard	-11767
▁brah	-11768
▁deja	-11769
▁hoor	-11770
▁murk	-11771
▁nude	-11772
▁blaow	-11773
▁piper	-11774
▁blazed	-11775
▁bounds	-11776
▁bounty	-11777
▁fishes	-11778
▁hunnid	-11779
▁blasted	-11780
▁kennedy	-11781
▁stomping	-11782
chool	-11783
▁eric	-11784
▁oohh	-11785
▁vans	-11786
imeter	-11787
▁mummy	-11788
▁closin	-11789
▁terrif	-11790
▁thriller	-11791
▁handcuffs	-11792
▁successful	-11793
olia	-11794
▁300	-11795
▁amy	-11796
▁jig	-11797
▁kod	-11798
▁rib	-11799
▁shak	-11800
▁badge	-11801
▁cryst	-11802
▁relev	-11803
coaster	-11804
▁adoles	-11805
▁capone	-11806
▁parlay	-11807
▁trench	-11808
▁couldve	-11809
▁jordans	-11810
▁profile	-11811
▁belonged	-11812
▁educated	-11813
▁snatched	-11814
▁greyhound	-11815
av	-11816
uge	-11817
lings	-11818
▁owns	-11819
▁bulls	-11820
▁chord	-11821
▁crabs	-11822
▁grimy	-11823
stances	-11824
▁peeled	-11825
▁busters	-11826
▁comment	-11827
▁crawlin	-11828
▁doorstep	-11829
▁hourglass	-11830
ann	-11831
oks	-11832
nesia	-11833
▁befo	-11834
▁basis	-11835
▁craig	-11836
▁extin	-11837
▁fumes	-11838
▁shawn	-11839
▁atomic	-11840
▁beggar	-11841
▁jackin	-11842
▁proven	-11843
▁pumped	-11844
▁artific	-11845
▁bluebird	-11846
▁rotation	-11847
▁ants	-11848
▁beac	-11849
▁coole	-11850
▁demol	-11851
▁rated	-11852
▁snort	-11853
▁donald	-11854
▁cursing	-11855
▁dancers	-11856
▁guardian	-11857
▁resident	-11858
▁villains	-11859
▁generations	-11860
sol	-11861
aroo	-11862
izes	-11863
ogue	-11864
onin	-11865
craft	-11866
fight	-11867
▁estab	-11868
▁jokin	-11869
▁ralph	-11870
scratch	-11871
▁batman	-11872
▁fruits	-11873
▁daisies	-11874
▁gangbang	-11875
▁paycheck	-11876
▁damnation	-11877
▁sentences	-11878
▁lighthouse	-11879
▁lik	-11880
white	-11881
▁blog	-11882
▁hobo	-11883
▁spaz	-11884
▁camel	-11885
▁fragr	-11886
▁conven	-11887
▁grapes	-11888
▁punched	-11889
▁cannonball	-11890
▁808	-11891
▁rut	-11892
bitch	-11893
▁hass	-11894
rassed	-11895
▁clint	-11896
▁fixin	-11897
▁scoot	-11898
▁whatt	-11899
▁google	-11900
▁gunnin	-11901
▁rusted	-11902
▁truest	-11903
▁eastern	-11904
▁churches	-11905
▁secretly	-11906
▁striking	-11907
▁whistling	-11908
▁soundtrack	-11909
▁mae	-11910
acent	-11911
▁roul	-11912
▁sown	-11913
▁perce	-11914
sterdam	-11915
▁badder	-11916
▁gimmie	-11917
▁leaned	-11918
▁mistre	-11919
▁coolest	-11920
▁repeats	-11921
▁sundays	-11922
▁disguised	-11923
▁environment	-11924
▁congratulations	-11925
zar	-11926
bour	-11927
nuts	-11928
pson	-11929
▁ore	-11930
▁sie	-11931
▁blam	-11932
▁tant	-11933
▁colon	-11934
▁penal	-11935
mingham	-11936
▁chaser	-11937
▁collab	-11938
▁galore	-11939
▁supers	-11940
eeeeeeee	-11941
▁scholar	-11942
▁limelight	-11943
▁ammunition	-11944
▁extraordinary	-11945
pire	-11946
rift	-11947
urbs	-11948
▁90'	-11949
▁kal	-11950
▁bowed	-11951
▁nephe	-11952
▁steez	-11953
▁tanks	-11954
▁digest	-11955
▁intend	-11956
▁prints	-11957
▁suspic	-11958
▁lobster	-11959
▁roaring	-11960
▁smelled	-11961
▁slamming	-11962
▁infection	-11963
▁birmingham	-11964
▁cola	-11965
▁sewn	-11966
inking	-11967
▁clark	-11968
▁grips	-11969
▁grits	-11970
▁ounces	-11971
▁shoots	-11972
▁tricky	-11973
▁carouse	-11974
▁crucial	-11975
▁throats	-11976
▁tripped	-11977
▁assholes	-11978
▁circling	-11979
▁overhead	-11980
▁serenade	-11981
▁meaningless	-11982
▁unforgettable	-11983
uum	-11984
beats	-11985
▁wana	-11986
ittens	-11987
▁abide	-11988
▁coins	-11989
▁prays	-11990
▁wrink	-11991
▁judged	-11992
▁mustang	-11993
▁levitate	-11994
▁afterlife	-11995
cock	-11996
hent	-11997
▁hike	-11998
▁bubba	-11999
▁enhan	-12000
▁barbed	-12001
▁clones	-12002
▁retali	-12003
▁spades	-12004
▁squeak	-12005
▁insight	-12006
▁predict	-12007
▁dissolve	-12008
▁grieving	-12009
▁stalking	-12010
▁delirious	-12011
▁insurance	-12012
bba	-12013
▁audio	-12014
▁rushin	-12015
inations	-12016
▁tapping	-12017
▁amsterdam	-12018
▁suspended	-12019
▁electricity	-12020
▁oi	-12021
mark	-12022
faced	-12023
▁inev	-12024
▁scro	-12025
master	-12026
▁aspir	-12027
▁graph	-12028
▁rosie	-12029
▁yards	-12030
▁barber	-12031
▁flashy	-12032
▁kiddin	-12033
▁sweets	-12034
▁servant	-12035
▁homemade	-12036
▁marathon	-12037
▁landscape	-12038
▁shepherds	-12039
▁grandfather	-12040
▁interesting	-12041
▁_	-12042
aro	-12043
cke	-12044
ilyn	-12045
▁pits	-12046
▁scoo	-12047
mented	-12048
▁fendi	-12049
▁fetch	-12050
▁snuck	-12051
▁solem	-12052
▁curios	-12053
▁melted	-12054
▁tested	-12055
▁uncons	-12056
▁imaginary	-12057
bly	-12058
▁dv	-12059
fraid	-12060
▁info	-12061
▁emper	-12062
▁fucka	-12063
▁goody	-12064
ability	-12065
▁bullsh	-12066
▁anguish	-12067
▁maximum	-12068
▁biscuits	-12069
▁withdraw	-12070
▁squeezing	-12071
ibu	-12072
amel	-12073
ario	-12074
slide	-12075
▁nite	-12076
▁tina	-12077
▁restr	-12078
▁swoop	-12079
▁holmes	-12080
▁frantic	-12081
▁rattles	-12082
▁blinking	-12083
▁companion	-12084
▁counterfeit	-12085
▁lp	-12086
etti	-12087
eness	-12088
▁hann	-12089
employ	-12090
▁prowl	-12091
▁quiver	-12092
▁accused	-12093
▁borough	-12094
▁pyramid	-12095
▁abstract	-12096
▁friction	-12097
▁grounded	-12098
▁partying	-12099
▁anonymous	-12100
▁blackness	-12101
▁christians	-12102
fun	-12103
▁aa	-12104
wing	-12105
▁riv	-12106
uckle	-12107
waves	-12108
▁accur	-12109
▁darts	-12110
▁spons	-12111
▁antone	-12112
▁embers	-12113
▁excess	-12114
▁expert	-12115
▁karate	-12116
▁witchu	-12117
▁bugging	-12118
▁spillin	-12119
▁avoiding	-12120
▁barbecue	-12121
▁.3	-12122
▁iz	-12123
antly	-12124
▁loaf	-12125
▁skrr	-12126
▁wess	-12127
culiar	-12128
▁baton	-12129
▁indul	-12130
▁poets	-12131
▁nostal	-12132
▁solemn	-12133
▁marilyn	-12134
▁psychic	-12135
▁shaolin	-12136
▁tasting	-12137
▁abortion	-12138
cas	-12139
kkle	-12140
▁buh	-12141
arian	-12142
dling	-12143
point	-12144
▁pend	-12145
▁cribs	-12146
▁rakim	-12147
▁rouge	-12148
▁sinks	-12149
▁caller	-12150
▁diddle	-12151
▁drownin	-12152
▁fearing	-12153
▁genesis	-12154
▁grammar	-12155
▁sunsets	-12156
▁arkansas	-12157
▁serenity	-12158
▁receiving	-12159
resh	-12160
▁beet	-12161
▁loner	-12162
▁maneu	-12163
walking	-12164
▁casino	-12165
▁warming	-12166
▁gleaming	-12167
▁graduate	-12168
▁accomplish	-12169
ov	-12170
▁stil	-12171
▁cocon	-12172
▁drips	-12173
▁multi	-12174
▁waiter	-12175
▁weighs	-12176
▁millenn	-12177
▁snowman	-12178
▁peculiar	-12179
▁notorious	-12180
▁apparently	-12181
▁95	-12182
alem	-12183
gnac	-12184
▁demo	-12185
ocaust	-12186
▁kitten	-12187
▁vapors	-12188
▁freesty	-12189
▁glamour	-12190
▁grenade	-12191
▁embarrassed	-12192
▁.45	-12193
▁mace	-12194
▁menu	-12195
meanor	-12196
▁curly	-12197
▁gangs	-12198
▁miner	-12199
itating	-12200
▁alibis	-12201
▁dougie	-12202
▁shroud	-12203
▁authent	-12204
▁economy	-12205
▁madonna	-12206
▁nobodys	-12207
▁argument	-12208
▁revolver	-12209
▁appealing	-12210
▁exploding	-12211
▁jailhouse	-12212
▁celebrating	-12213
gi	-12214
jud	-12215
atos	-12216
uate	-12217
▁bib	-12218
anche	-12219
chief	-12220
vette	-12221
▁duct	-12222
▁kris	-12223
▁kung	-12224
▁davis	-12225
▁irres	-12226
▁relap	-12227
▁calend	-12228
▁unfolds	-12229
▁frequency	-12230
▁artificial	-12231
hu	-12232
lib	-12233
loc	-12234
▁9,	-12235
▁ls	-12236
ibly	-12237
▁lor	-12238
▁buys	-12239
▁cone	-12240
icking	-12241
▁honda	-12242
▁jerus	-12243
▁mutil	-12244
▁spade	-12245
▁timbs	-12246
▁titty	-12247
▁dumpin	-12248
▁revive	-12249
▁amnesia	-12250
▁january	-12251
▁mustard	-12252
▁nickels	-12253
▁popcorn	-12254
▁6,	-12255
drop	-12256
▁80'	-12257
imore	-12258
▁epic	-12259
▁endea	-12260
▁munch	-12261
▁manger	-12262
▁quench	-12263
▁results	-12264
▁experien	-12265
▁lyricist	-12266
▁curiosity	-12267
▁conviction	-12268
▁distracted	-12269
▁disappointed	-12270
bru	-12271
rice	-12272
▁hic	-12273
▁lug	-12274
▁dared	-12275
▁associ	-12276
▁engage	-12277
▁harass	-12278
▁whisky	-12279
▁bearing	-12280
▁betrayal	-12281
▁pedestal	-12282
▁substitute	-12283
▁2.	-12284
▁kw	-12285
owed	-12286
▁187	-12287
force	-12288
space	-12289
▁epit	-12290
▁robb	-12291
▁casey	-12292
▁guill	-12293
▁mario	-12294
▁tones	-12295
▁itching	-12296
▁skinned	-12297
▁entrance	-12298
▁invasion	-12299
▁schedule	-12300
▁billboard	-12301
ika	-12302
▁ig	-12303
folk	-12304
▁naa	-12305
▁brun	-12306
flower	-12307
▁elbow	-12308
▁pools	-12309
▁commas	-12310
▁guessin	-12311
▁sniffin	-12312
▁backbone	-12313
▁magnetic	-12314
▁scholars	-12315
▁showdown	-12316
▁trenches	-12317
▁holocaust	-12318
blin	-12319
▁brig	-12320
▁dess	-12321
▁grou	-12322
▁glued	-12323
▁ideal	-12324
▁spawn	-12325
▁lightin	-12326
▁massacre	-12327
▁roulette	-12328
▁vanished	-12329
sight	-12330
▁groan	-12331
▁poles	-12332
▁safer	-12333
▁waved	-12334
▁bended	-12335
▁corrid	-12336
▁howard	-12337
▁stadium	-12338
▁pointless	-12339
==	-12340
sk	-12341
saw	-12342
echo	-12343
umba	-12344
▁mmh	-12345
▁vapor	-12346
▁ablaze	-12347
▁climax	-12348
▁crocod	-12349
▁floods	-12350
▁ranger	-12351
▁bootleg	-12352
▁cartoon	-12353
▁freezer	-12354
▁continues	-12355
▁oy	-12356
archy	-12357
ridge	-12358
▁neut	-12359
▁bends	-12360
▁energ	-12361
▁flava	-12362
▁mills	-12363
▁sympt	-12364
▁vocab	-12365
▁agreed	-12366
▁healer	-12367
▁honour	-12368
▁multiple	-12369
▁producer	-12370
▁liberation	-12371
▁righteousness	-12372
▁;	-12373
▁32	-12374
▁35	-12375
▁bry	-12376
orita	-12377
▁pall	-12378
igning	-12379
▁chees	-12380
▁builds	-12381
▁draped	-12382
▁hazard	-12383
▁justin	-12384
▁steals	-12385
▁chauffe	-12386
▁clapped	-12387
▁monkeys	-12388
mus	-12389
roe	-12390
rane	-12391
▁voy	-12392
▁dunno	-12393
▁armies	-12394
▁daniel	-12395
▁fatter	-12396
▁assured	-12397
▁boredom	-12398
▁illuminate	-12399
▁docu	-12400
▁cyber	-12401
▁goner	-12402
▁mates	-12403
▁rican	-12404
▁valet	-12405
▁chucks	-12406
▁chumps	-12407
▁parting	-12408
▁lollipop	-12409
▁hypocrite	-12410
▁neighbours	-12411
▁disconnected	-12412
hot	-12413
issy	-12414
▁wag	-12415
▁lugg	-12416
▁piff	-12417
▁mound	-12418
▁novel	-12419
▁sperm	-12420
▁bottled	-12421
▁dramatic	-12422
▁solitary	-12423
▁magnificent	-12424
▁bk	-12425
gins	-12426
▁amar	-12427
▁award	-12428
▁comet	-12429
▁grabs	-12430
▁semen	-12431
▁harley	-12432
▁hippie	-12433
▁mayday	-12434
▁newest	-12435
▁territ	-12436
▁beautif	-12437
▁catches	-12438
▁maggots	-12439
▁proving	-12440
▁clueless	-12441
▁stallion	-12442
▁subliminal	-12443
▁mop	-12444
▁kard	-12445
▁plex	-12446
▁youn	-12447
▁buster	-12448
▁denver	-12449
▁forcing	-12450
▁hostage	-12451
▁lantern	-12452
▁bursting	-12453
▁followin	-12454
▁grinning	-12455
▁hypocris	-12456
▁jerusalem	-12457
▁experiment	-12458
▁performance	-12459
-10	-12460
biz	-12461
hol	-12462
▁2-	-12463
▁ky	-12464
▁mcg	-12465
▁judy	-12466
▁sizz	-12467
▁wick	-12468
▁aimin	-12469
▁links	-12470
▁loads	-12471
▁thine	-12472
▁hottie	-12473
▁hunted	-12474
▁krypton	-12475
▁recline	-12476
▁disorder	-12477
▁enlighten	-12478
▁motivated	-12479
▁territory	-12480
▁discipline	-12481
▁swallowing	-12482
▁unconscious	-12483
dot	-12484
rus	-12485
bean	-12486
rial	-12487
▁jeezy	-12488
▁lease	-12489
▁mmmmm	-12490
▁scorp	-12491
▁bleach	-12492
▁cigars	-12493
▁dismay	-12494
▁offers	-12495
▁flashes	-12496
▁inherit	-12497
▁rejected	-12498
▁marvelous	-12499
▁truthfully	-12500
▁lb	-12501
▁oj	-12502
▁eme	-12503
atered	-12504
▁convo	-12505
▁extend	-12506
▁itchin	-12507
▁poetic	-12508
▁biscuit	-12509
▁branded	-12510
▁proudly	-12511
▁sickest	-12512
▁surreal	-12513
▁wouldve	-12514
▁wrestle	-12515
▁alphabet	-12516
▁hillside	-12517
▁exhausted	-12518
▁explosion	-12519
▁sidewalks	-12520
asha	-12521
imal	-12522
▁sod	-12523
ublic	-12524
▁goof	-12525
▁nova	-12526
▁captiv	-12527
▁framed	-12528
▁mingle	-12529
▁dearest	-12530
▁fitting	-12531
▁italian	-12532
▁murders	-12533
▁shouted	-12534
▁surfing	-12535
▁travels	-12536
▁nicotine	-12537
▁scissors	-12538
▁aggressive	-12539
ifa	-12540
▁nie	-12541
nasty	-12542
▁tens	-12543
▁antid	-12544
▁flour	-12545
eration	-12546
▁saturn	-12547
▁thrive	-12548
▁yelled	-12549
▁chandel	-12550
▁starter	-12551
▁intended	-12552
▁monopoly	-12553
▁downstairs	-12554
ail	-12555
uzz	-12556
why	-12557
▁pom	-12558
lence	-12559
▁2012	-12560
▁pyre	-12561
▁unpl	-12562
repeat	-12563
▁madly	-12564
▁berlin	-12565
▁device	-12566
▁grades	-12567
▁indigo	-12568
▁tailor	-12569
▁tossin	-12570
▁captive	-12571
▁charges	-12572
▁luggage	-12573
▁network	-12574
▁scrilla	-12575
▁bragging	-12576
▁tattered	-12577
▁unbroken	-12578
▁baltimore	-12579
▁poisonous	-12580
▁opposition	-12581
rem	-12582
pass	-12583
scrat	-12584
▁slob	-12585
▁cloak	-12586
▁pager	-12587
▁layers	-12588
▁pebble	-12589
▁blacked	-12590
▁elevated	-12591
▁imperial	-12592
▁shitting	-12593
▁anticipating	-12594
atti	-12595
chat	-12596
sell	-12597
word	-12598
▁brad	-12599
▁reno	-12600
▁aller	-12601
▁bache	-12602
▁bumps	-12603
▁slipp	-12604
▁spear	-12605
▁adored	-12606
▁bundle	-12607
▁euphor	-12608
▁hooray	-12609
▁woogie	-12610
▁cristal	-12611
▁pillows	-12612
▁speedin	-12613
▁bracelet	-12614
▁breathes	-12615
▁dominate	-12616
▁enjoying	-12617
▁grooving	-12618
▁hypocrisy	-12619
tha	-12620
▁1.	-12621
▁carc	-12622
omatic	-12623
▁immig	-12624
▁sneaky	-12625
▁payment	-12626
▁suburbs	-12627
▁vintage	-12628
▁guerilla	-12629
▁undressed	-12630
▁communicate	-12631
cano	-12632
▁ike	-12633
▁brat	-12634
▁foam	-12635
▁kilo	-12636
▁abund	-12637
▁plank	-12638
▁tyler	-12639
▁bitten	-12640
▁serial	-12641
▁tickle	-12642
▁twitch	-12643
▁driftin	-12644
▁knights	-12645
▁rihanna	-12646
▁shimmer	-12647
▁notebook	-12648
▁available	-12649
sho	-12650
wre	-12651
▁4:	-12652
maid	-12653
▁geek	-12654
itudes	-12655
member	-12656
▁ciroc	-12657
▁dolls	-12658
▁needa	-12659
▁alarms	-12660
▁choppa	-12661
▁simmer	-12662
▁bouquet	-12663
▁species	-12664
▁snitchin	-12665
▁twenties	-12666
▁alcoholic	-12667
▁concealed	-12668
▁nevermind	-12669
▁circumstances	-12670
arr	-12671
pan	-12672
ran	-12673
full	-12674
▁ceo	-12675
▁lye	-12676
▁bunk	-12677
▁webs	-12678
upiter	-12679
▁cocoa	-12680
▁crops	-12681
▁irony	-12682
▁musta	-12683
▁needy	-12684
▁recre	-12685
▁aligned	-12686
▁spotted	-12687
▁flirting	-12688
▁inviting	-12689
▁magnolia	-12690
▁students	-12691
▁distorted	-12692
▁glistening	-12693
ains	-12694
sens	-12695
▁koo	-12696
raine	-12697
▁chit	-12698
▁gene	-12699
▁spew	-12700
oooooo	-12701
▁tango	-12702
▁tweet	-12703
▁hockey	-12704
▁invade	-12705
▁labeled	-12706
▁cellular	-12707
▁chopping	-12708
▁unemploy	-12709
▁commotion	-12710
▁satellites	-12711
cers	-12712
inge	-12713
▁jed	-12714
eenth	-12715
iture	-12716
uction	-12717
▁clich	-12718
▁clears	-12719
▁dumped	-12720
▁serves	-12721
▁smoker	-12722
▁edition	-12723
▁futures	-12724
▁strangle	-12725
▁authentic	-12726
▁instincts	-12727
▁meditation	-12728
▁politician	-12729
▁suffocating	-12730
bom	-12731
ria	-12732
ffle	-12733
idel	-12734
laim	-12735
▁lep	-12736
blade	-12737
▁nate	-12738
▁hardy	-12739
▁wages	-12740
▁wavin	-12741
▁gloria	-12742
▁rented	-12743
▁scotch	-12744
▁strait	-12745
▁cleaner	-12746
▁fastest	-12747
▁heavily	-12748
▁indiana	-12749
▁missile	-12750
▁monument	-12751
▁conspiracy	-12752
dub	-12753
uled	-12754
every	-12755
loaded	-12756
▁lotus	-12757
▁pione	-12758
▁ankles	-12759
▁elbows	-12760
▁guided	-12761
▁merely	-12762
▁carryin	-12763
▁girlies	-12764
▁goodies	-12765
▁outcast	-12766
▁studied	-12767
▁volcano	-12768
▁addition	-12769
▁hallways	-12770
▁potatoes	-12771
▁youngest	-12772
ocks	-12773
▁bol	-12774
▁affl	-12775
▁gary	-12776
▁snot	-12777
donald	-12778
▁curses	-12779
▁sinful	-12780
▁skulls	-12781
▁violin	-12782
▁confide	-12783
▁console	-12784
▁tidings	-12785
▁scripture	-12786
▁kryptonite	-12787
did	-12788
ffy	-12789
ckin	-12790
▁197	-12791
▁arts	-12792
▁gust	-12793
▁libr	-12794
▁logo	-12795
▁mase	-12796
▁thot	-12797
▁unfa	-12798
▁churn	-12799
▁shank	-12800
▁usher	-12801
▁fumble	-12802
▁salary	-12803
▁snooze	-12804
▁cheetah	-12805
▁disinte	-12806
▁intimid	-12807
▁rebirth	-12808
▁district	-12809
▁withered	-12810
▁astronaut	-12811
▁murderers	-12812
▁mesmerized	-12813
▁unbreakable	-12814
ushi	-12815
itton	-12816
money	-12817
▁cuck	-12818
▁cush	-12819
▁carousel	-12820
▁hennessey	-12821
▁realizing	-12822
▁independence	-12823
oqu	-12824
▁'7	-12825
hehe	-12826
human	-12827
▁prog	-12828
▁orche	-12829
▁cinema	-12830
▁likkle	-12831
▁incense	-12832
▁murdering	-12833
▁organized	-12834
▁overboard	-12835
▁reference	-12836
▁strolling	-12837
▁appearance	-12838
▁conditions	-12839
▁hopelessly	-12840
▁recognition	-12841
aba	-12842
▁pod	-12843
abies	-12844
▁carr	-12845
▁comr	-12846
▁jing	-12847
▁khal	-12848
handed	-12849
▁bumpy	-12850
▁craze	-12851
▁meter	-12852
▁prone	-12853
▁slate	-12854
mediate	-12855
quisite	-12856
▁affili	-12857
▁bikini	-12858
▁cellar	-12859
▁tranqu	-12860
▁bicycle	-12861
▁caramel	-12862
▁massage	-12863
▁underdog	-12864
▁awakening	-12865
▁rejection	-12866
▁vibration	-12867
▁pc	-12868
▁naz	-12869
▁ome	-12870
▁rye	-12871
power	-12872
▁swap	-12873
▁categ	-12874
▁plush	-12875
▁roger	-12876
▁verge	-12877
▁quotes	-12878
▁rental	-12879
▁gunning	-12880
▁heaters	-12881
▁moonlit	-12882
▁stomped	-12883
▁trample	-12884
▁passport	-12885
▁pyramids	-12886
▁recognized	-12887
guard	-12888
raved	-12889
stead	-12890
urbed	-12891
▁dill	-12892
▁fray	-12893
▁sosa	-12894
▁wang	-12895
▁yang	-12896
▁masks	-12897
▁skysc	-12898
million	-12899
▁goddam	-12900
▁morbid	-12901
▁oldest	-12902
▁conform	-12903
▁slaught	-12904
▁lovesick	-12905
▁demonstrate	-12906
▁rollercoaster	-12907
▁pj	-12908
iner	-12909
▁noo	-12910
▁viv	-12911
▁nigh	-12912
▁suga	-12913
▁fatig	-12914
▁kenny	-12915
▁negro	-12916
▁smoky	-12917
▁active	-12918
▁pinned	-12919
▁dragons	-12920
▁jupiter	-12921
▁combined	-12922
▁hypnotic	-12923
▁ignition	-12924
▁furniture	-12925
▁propaganda	-12926
pool	-12927
▁esk	-12928
▁kon	-12929
▁sut	-12930
▁troy	-12931
▁baker	-12932
▁cages	-12933
▁heave	-12934
▁loses	-12935
▁styro	-12936
▁bumped	-12937
▁onward	-12938
▁crushin	-12939
▁stereoty	-12940
▁everythin	-12941
▁opponents	-12942
▁excitement	-12943
▁oppression	-12944
▁stretching	-12945
▁confessions	-12946
iqu	-12947
tos	-12948
▁maps	-12949
▁embed	-12950
▁ranch	-12951
▁relie	-12952
▁refuge	-12953
▁vulner	-12954
▁beverly	-12955
▁clockin	-12956
▁peeping	-12957
▁whattup	-12958
▁antidote	-12959
▁blankets	-12960
▁mindless	-12961
▁blueprint	-12962
▁gratitude	-12963
▁justified	-12964
▁@	-12965
pum	-12966
asso	-12967
▁tsu	-12968
▁blat	-12969
▁ipod	-12970
▁rigg	-12971
▁chero	-12972
▁oscar	-12973
▁panty	-12974
▁youse	-12975
▁fetish	-12976
▁perish	-12977
▁tonite	-12978
▁credits	-12979
▁emperor	-12980
▁pitbull	-12981
▁imprison	-12982
▁invested	-12983
▁scramble	-12984
▁avalanche	-12985
▁construct	-12986
▁submission	-12987
▁supernatural	-12988
anan	-12989
neys	-12990
othy	-12991
▁panc	-12992
▁supa	-12993
▁carib	-12994
▁exter	-12995
▁febru	-12996
▁quier	-12997
▁valid	-12998
▁spills	-12999
▁squirt	-13000
▁cheaper	-13001
▁peeling	-13002
▁profits	-13003
▁republic	-13004
▁slanging	-13005
▁snapping	-13006
▁disbelief	-13007
▁fireplace	-13008
▁fingerprints	-13009
0s	-13010
eek	-13011
▁#1	-13012
hell	-13013
ohhh	-13014
▁pew	-13015
▁trop	-13016
string	-13017
▁grizz	-13018
▁medal	-13019
▁savor	-13020
▁uncha	-13021
athered	-13022
▁centre	-13023
▁corona	-13024
▁lesser	-13025
▁pissin	-13026
▁reggie	-13027
▁sniper	-13028
▁worker	-13029
▁unravel	-13030
▁bitching	-13031
▁hungover	-13032
▁bloodshot	-13033
▁isolation	-13034
▁pollution	-13035
▁illuminati	-13036
usa	-13037
▁ampl	-13038
▁spat	-13039
▁stem	-13040
▁lowest	-13041
▁monica	-13042
▁obtain	-13043
▁puddle	-13044
▁drifter	-13045
▁folding	-13046
▁nightly	-13047
▁surgeon	-13048
▁architect	-13049
▁fascination	-13050
wal	-13051
▁38	-13052
▁isa	-13053
▁fick	-13054
▁lawd	-13055
▁vase	-13056
▁depos	-13057
▁jacuzz	-13058
▁tomato	-13059
▁privacy	-13060
conscious	-13061
▁polished	-13062
▁snapback	-13063
▁scarecrow	-13064
▁sickening	-13065
tails	-13066
▁ceil	-13067
oscope	-13068
▁sammy	-13069
▁schiz	-13070
▁mommas	-13071
▁purity	-13072
▁styrofo	-13073
▁conceive	-13074
▁militant	-13075
▁democracy	-13076
▁witnessed	-13077
▁intertwined	-13078
ku	-13079
▁ei	-13080
actus	-13081
jamas	-13082
▁bers	-13083
▁burg	-13084
▁gest	-13085
▁woof	-13086
itters	-13087
▁nostr	-13088
▁perse	-13089
▁recru	-13090
▁swole	-13091
▁twink	-13092
▁billie	-13093
▁caviar	-13094
▁christm	-13095
▁millennium	-13096
▁psychopath	-13097
had	-13098
sie	-13099
bomb	-13100
▁beau	-13101
▁gloo	-13102
▁joys	-13103
active	-13104
hhhhhh	-13105
placed	-13106
▁andre	-13107
▁conqu	-13108
▁diana	-13109
▁recip	-13110
▁rhine	-13111
▁sista	-13112
vations	-13113
▁sphere	-13114
▁elegant	-13115
▁trappin	-13116
▁blocking	-13117
▁february	-13118
▁soothing	-13119
▁stabbing	-13120
▁fortunate	-13121
▁attractive	-13122
pon	-13123
tex	-13124
▁seg	-13125
▁cyan	-13126
▁meow	-13127
▁maser	-13128
▁rescu	-13129
▁fathom	-13130
▁unborn	-13131
▁betting	-13132
▁blizzard	-13133
▁stinking	-13134
oni	-13135
▁gh	-13136
oric	-13137
▁eli	-13138
aland	-13139
▁marl	-13140
▁futur	-13141
▁courts	-13142
▁filter	-13143
▁slowed	-13144
▁citizen	-13145
▁forming	-13146
▁meanest	-13147
▁revival	-13148
▁skippin	-13149
▁whining	-13150
▁infrared	-13151
▁nauseous	-13152
▁eliminate	-13153
▁immediate	-13154
▁daydreaming	-13155
▁description	-13156
yes	-13157
empt	-13158
rope	-13159
iggas	-13160
ushed	-13161
▁buds	-13162
▁chow	-13163
▁entw	-13164
▁owed	-13165
▁weir	-13166
▁swiss	-13167
▁swung	-13168
▁uncut	-13169
▁wells	-13170
▁awards	-13171
▁esteem	-13172
▁evolve	-13173
▁earning	-13174
▁require	-13175
▁cassette	-13176
▁coughing	-13177
▁gorillas	-13178
▁psychotic	-13179
▁tombstone	-13180
eau	-13181
▁pab	-13182
▁dere	-13183
▁gonn	-13184
▁leon	-13185
▁saga	-13186
▁wail	-13187
▁crest	-13188
▁debts	-13189
▁kidnap	-13190
▁unpred	-13191
▁sophist	-13192
▁sympath	-13193
▁writers	-13194
▁cherokee	-13195
▁homesick	-13196
▁splitting	-13197
▁helicopter	-13198
wire	-13199
oused	-13200
▁stap	-13201
shirts	-13202
▁vices	-13203
▁peeped	-13204
▁grinnin	-13205
▁titanic	-13206
▁calendar	-13207
▁facetime	-13208
▁treacher	-13209
▁interlude	-13210
▁3d	-13211
hamm	-13212
▁cara	-13213
▁flap	-13214
▁ster	-13215
▁todd	-13216
ension	-13217
▁dames	-13218
▁dated	-13219
▁unrave	-13220
▁locking	-13221
▁restore	-13222
▁sumthin	-13223
▁confetti	-13224
▁evermore	-13225
▁gunshots	-13226
▁measured	-13227
▁separation	-13228
▁paw	-13229
▁zen	-13230
fella	-13231
▁abra	-13232
▁dyke	-13233
▁nile	-13234
▁visa	-13235
▁cheeba	-13236
▁crowns	-13237
▁hawaii	-13238
▁porcel	-13239
▁dismant	-13240
▁relapse	-13241
▁vuitton	-13242
▁teardrop	-13243
▁thugging	-13244
▁wildfire	-13245
▁consuming	-13246
▁catastrophe	-13247
▁zo	-13248
glow	-13249
▁rav	-13250
nigga	-13251
▁arom	-13252
achers	-13253
▁shoop	-13254
▁deuces	-13255
▁illust	-13256
▁manner	-13257
▁paints	-13258
▁acceler	-13259
▁blindly	-13260
▁decides	-13261
▁jamming	-13262
▁smashin	-13263
▁backroad	-13264
▁confined	-13265
▁devilish	-13266
▁mansions	-13267
▁victoria	-13268
▁benjamins	-13269
▁introduction	-13270
oint	-13271
▁196	-13272
▁lah	-13273
▁doja	-13274
▁gord	-13275
▁laps	-13276
angled	-13277
▁adapt	-13278
▁slows	-13279
▁spazz	-13280
▁cliche	-13281
▁decade	-13282
▁bankroll	-13283
▁benjamin	-13284
▁comments	-13285
▁european	-13286
▁grenades	-13287
▁stillness	-13288
▁everythang	-13289
▁coincidence	-13290
▁connections	-13291
▁heartbroken	-13292
oa	-13293
fed	-13294
sis	-13295
urt	-13296
watch	-13297
ifying	-13298
▁butts	-13299
▁explo	-13300
▁hired	-13301
▁shops	-13302
▁junkies	-13303
▁pumpkin	-13304
▁explodes	-13305
▁crocodile	-13306
▁snowflakes	-13307
▁distractions	-13308
▁underestimate	-13309
sea	-13310
assy	-13311
▁lon	-13312
▁curfe	-13313
▁gross	-13314
▁laces	-13315
▁queer	-13316
▁rambo	-13317
▁shaft	-13318
▁vroom	-13319
itivity	-13320
▁booked	-13321
▁digger	-13322
▁swisha	-13323
▁vibrate	-13324
▁weighed	-13325
▁catholic	-13326
▁doubting	-13327
▁preachin	-13328
▁slippery	-13329
▁porcelain	-13330
gone	-13331
▁jas	-13332
▁soo	-13333
▁foxy	-13334
▁loung	-13335
▁beacon	-13336
▁fiesta	-13337
▁income	-13338
▁quiero	-13339
▁enjoyed	-13340
▁lighten	-13341
▁ooooooh	-13342
▁provoke	-13343
▁radical	-13344
▁relaxed	-13345
▁rhythms	-13346
▁unheard	-13347
▁backstab	-13348
▁sweeping	-13349
▁landslide	-13350
mc	-13351
amma	-13352
funk	-13353
▁caf	-13354
▁loft	-13355
istics	-13356
▁allen	-13357
▁halle	-13358
▁groups	-13359
▁unplug	-13360
▁clouded	-13361
▁drivers	-13362
▁nintend	-13363
▁replied	-13364
▁einstein	-13365
▁fingerna	-13366
▁resemble	-13367
▁disintegr	-13368
▁fragrance	-13369
15	-13370
▁jr	-13371
choo	-13372
alled	-13373
▁damp	-13374
▁greg	-13375
▁nazi	-13376
▁wren	-13377
▁lingo	-13378
fucking	-13379
▁leakin	-13380
▁stings	-13381
▁warnin	-13382
▁crucify	-13383
▁rehears	-13384
▁advanced	-13385
▁trumpets	-13386
▁styrofoam	-13387
▁.44	-13388
▁vexed	-13389
inished	-13390
▁comedy	-13391
▁relive	-13392
▁amateur	-13393
▁crowned	-13394
▁balloons	-13395
▁casualty	-13396
▁frontier	-13397
▁uncomfor	-13398
kis	-13399
lymp	-13400
▁drin	-13401
▁fags	-13402
strong	-13403
▁unfur	-13404
▁verbs	-13405
▁wider	-13406
▁blouse	-13407
▁review	-13408
▁screws	-13409
▁arrives	-13410
▁bangers	-13411
▁charity	-13412
▁cooling	-13413
▁gallows	-13414
▁gimmick	-13415
▁passive	-13416
▁pigeons	-13417
▁numbered	-13418
▁underrated	-13419
▁mathematics	-13420
ises	-13421
live	-13422
▁faker	-13423
▁moans	-13424
▁scuff	-13425
▁timin	-13426
▁gloomy	-13427
▁offense	-13428
▁defenses	-13429
▁collected	-13430
▁grapevine	-13431
▁surprises	-13432
▁survivors	-13433
▁waterfalls	-13434
lyph	-13435
▁cds	-13436
▁mun	-13437
▁dale	-13438
▁lads	-13439
▁ming	-13440
▁patr	-13441
▁seam	-13442
▁galax	-13443
▁piggy	-13444
▁zones	-13445
▁barric	-13446
▁cactus	-13447
▁makers	-13448
▁malibu	-13449
▁snapped	-13450
▁waterme	-13451
▁wreckage	-13452
▁ancestors	-13453
▁attacking	-13454
▁shameless	-13455
▁weightless	-13456
▁sophisticated	-13457
nut	-13458
ddin	-13459
▁jog	-13460
anova	-13461
horse	-13462
zilla	-13463
▁dung	-13464
▁kore	-13465
▁noct	-13466
▁comic	-13467
▁laden	-13468
▁smugg	-13469
▁infilt	-13470
▁mayhem	-13471
▁monroe	-13472
▁remark	-13473
▁addicts	-13474
▁emerald	-13475
▁heathen	-13476
▁persona	-13477
▁sailors	-13478
▁wilding	-13479
▁ceilings	-13480
▁rednecks	-13481
▁cardboard	-13482
▁collision	-13483
bis	-13484
uded	-13485
rings	-13486
▁anat	-13487
▁gems	-13488
▁mete	-13489
▁skid	-13490
▁slot	-13491
legged	-13492
▁polly	-13493
▁serge	-13494
▁beefin	-13495
▁judges	-13496
▁lizard	-13497
▁parker	-13498
▁purest	-13499
▁vacuum	-13500
▁crashin	-13501
▁managed	-13502
▁picasso	-13503
▁praised	-13504
▁answering	-13505
▁compliments	-13506
▁disappointment	-13507
cs	-13508
put	-13509
mode	-13510
▁aaa	-13511
aires	-13512
choly	-13513
cules	-13514
▁hast	-13515
▁reds	-13516
▁swar	-13517
▁ankle	-13518
▁browns	-13519
▁immune	-13520
▁prejud	-13521
▁squeal	-13522
▁awfully	-13523
▁chilled	-13524
▁circuit	-13525
▁dessert	-13526
▁formula	-13527
▁soundin	-13528
▁drenched	-13529
▁failures	-13530
▁magician	-13531
▁nintendo	-13532
▁stirring	-13533
▁broadcast	-13534
▁conceited	-13535
bris	-13536
▁5-0	-13537
bling	-13538
caine	-13539
▁grit	-13540
▁josh	-13541
hammad	-13542
ormous	-13543
▁exten	-13544
▁agenda	-13545
▁tigers	-13546
▁turner	-13547
▁motorcy	-13548
▁pierced	-13549
▁yawning	-13550
▁horizons	-13551
▁recently	-13552
▁stalling	-13553
▁cornbread	-13554
▁overdrive	-13555
▁recognise	-13556
▁performing	-13557
▁rearranged	-13558
mac	-13559
wit	-13560
▁wif	-13561
opher	-13562
ourse	-13563
▁loops	-13564
▁wande	-13565
▁compar	-13566
▁cypress	-13567
▁gardens	-13568
▁minister	-13569
▁concentration	-13570
▁cah	-13571
▁nev	-13572
osure	-13573
▁chub	-13574
▁peer	-13575
▁sage	-13576
feated	-13577
▁achin	-13578
▁emily	-13579
▁giver	-13580
▁parks	-13581
cending	-13582
▁falter	-13583
▁spends	-13584
▁journal	-13585
▁sustain	-13586
▁daydreams	-13587
▁exquisite	-13588
▁including	-13589
▁integrity	-13590
▁casualties	-13591
▁guillotine	-13592
▁confrontation	-13593
mony	-13594
▁cun	-13595
knock	-13596
▁joan	-13597
pelled	-13598
▁olymp	-13599
▁soles	-13600
▁banned	-13601
▁beeper	-13602
▁bonita	-13603
▁noises	-13604
▁posing	-13605
▁existed	-13606
▁extended	-13607
▁punching	-13608
▁explosive	-13609
▁overwhelming	-13610
://	-13611
ayy	-13612
idy	-13613
rag	-13614
▁doh	-13615
▁fri	-13616
▁tae	-13617
▁cham	-13618
▁jere	-13619
▁nooo	-13620
▁knack	-13621
▁medio	-13622
▁randy	-13623
▁cereal	-13624
▁cuckoo	-13625
▁howlin	-13626
▁jokers	-13627
▁kettle	-13628
▁organs	-13629
▁steeple	-13630
▁colorful	-13631
▁tricking	-13632
▁americans	-13633
▁countries	-13634
▁mastermind	-13635
▁heavyweight	-13636
▁overwhelmed	-13637
▁possibility	-13638
lina	-13639
▁tak	-13640
▁athe	-13641
▁puzz	-13642
▁scul	-13643
▁sift	-13644
asters	-13645
▁comma	-13646
▁madman	-13647
▁spokes	-13648
▁tappin	-13649
▁accounts	-13650
▁crickets	-13651
▁striving	-13652
kah	-13653
▁''	-13654
▁4'	-13655
ifty	-13656
▁pis	-13657
▁zag	-13658
▁luna	-13659
▁mick	-13660
▁sips	-13661
▁celly	-13662
▁donna	-13663
▁kamik	-13664
▁manne	-13665
▁shuff	-13666
▁squat	-13667
▁sushi	-13668
▁theyd	-13669
▁ticks	-13670
▁bucked	-13671
▁violet	-13672
▁germany	-13673
▁rabbits	-13674
▁resolve	-13675
▁commence	-13676
▁fraction	-13677
▁piercing	-13678
▁scribble	-13679
▁swallows	-13680
▁slightest	-13681
▁solutions	-13682
▁visualize	-13683
▁explaining	-13684
lson	-13685
pret	-13686
iless	-13687
▁clam	-13688
▁dats	-13689
▁dips	-13690
▁grub	-13691
▁lous	-13692
▁verd	-13693
acious	-13694
esteem	-13695
▁bodys	-13696
▁janet	-13697
▁pedig	-13698
▁redef	-13699
▁scree	-13700
▁dayton	-13701
▁debris	-13702
▁execut	-13703
▁feedin	-13704
▁longed	-13705
▁series	-13706
▁severe	-13707
▁strate	-13708
▁cheater	-13709
▁clinton	-13710
▁discrim	-13711
▁watered	-13712
▁citizens	-13713
▁lingerie	-13714
▁platform	-13715
▁elevation	-13716
▁inevitable	-13717
▁protecting	-13718
▁slaughtered	-13719
-11	-13720
asis	-13721
▁doot	-13722
▁rect	-13723
▁beads	-13724
▁caine	-13725
▁patty	-13726
▁stats	-13727
▁resort	-13728
▁senior	-13729
▁warren	-13730
▁coconut	-13731
▁coffins	-13732
▁courtes	-13733
▁classics	-13734
▁rooftops	-13735
▁sidekick	-13736
▁starring	-13737
▁unstable	-13738
▁wrestling	-13739
▁dimensions	-13740
ulf	-13741
▁3-	-13742
acha	-13743
rats	-13744
▁shun	-13745
▁snub	-13746
▁erupt	-13747
▁layed	-13748
▁vague	-13749
▁guides	-13750
▁homage	-13751
▁maggie	-13752
thousand	-13753
▁anthony	-13754
▁slither	-13755
▁tipping	-13756
▁tricked	-13757
▁feedback	-13758
▁mcdonald	-13759
▁followers	-13760
▁melancholy	-13761
▁complications	-13762
boro	-13763
lash	-13764
▁rin	-13765
ician	-13766
▁aces	-13767
▁kare	-13768
▁tamb	-13769
▁bogus	-13770
▁risky	-13771
▁ruger	-13772
▁vault	-13773
▁frosty	-13774
▁hummin	-13775
▁lalala	-13776
▁shaved	-13777
▁coppers	-13778
▁dummies	-13779
▁housing	-13780
▁plaques	-13781
▁weights	-13782
▁pursuing	-13783
▁flashback	-13784
usin	-13785
wall	-13786
▁cia	-13787
▁wen	-13788
ooooo	-13789
▁conn	-13790
▁wilt	-13791
▁locom	-13792
▁sewer	-13793
▁absent	-13794
▁caving	-13795
▁malice	-13796
▁steven	-13797
▁affairs	-13798
▁strokes	-13799
▁dinosaur	-13800
▁headline	-13801
▁intellectual	-13802
cky	-13803
elt	-13804
lli	-13805
hund	-13806
itis	-13807
odie	-13808
ucks	-13809
▁hagg	-13810
▁leis	-13811
▁mosh	-13812
▁para	-13813
▁caval	-13814
▁decap	-13815
▁fates	-13816
▁nitty	-13817
▁theat	-13818
▁tulsa	-13819
▁applaud	-13820
▁cripple	-13821
▁portion	-13822
▁reveals	-13823
▁succumb	-13824
▁enormous	-13825
▁missiles	-13826
▁slippers	-13827
▁stockings	-13828
▁spectacular	-13829
▁anticipation	-13830
▁unpredictable	-13831
hane	-13832
icke	-13833
odes	-13834
ower	-13835
phin	-13836
rosene	-13837
▁aspha	-13838
▁baggy	-13839
▁lynch	-13840
▁moods	-13841
▁truce	-13842
▁intens	-13843
▁ooohhh	-13844
▁redeem	-13845
▁regime	-13846
▁sailin	-13847
▁trauma	-13848
▁vibing	-13849
▁conduct	-13850
▁swiftly	-13851
▁galaxies	-13852
▁kerosene	-13853
▁strategy	-13854
▁scientist	-13855
▁shivering	-13856
▁temptations	-13857
,'	-13858
▁ic	-13859
thro	-13860
onate	-13861
▁doop	-13862
▁gums	-13863
▁loos	-13864
▁rook	-13865
▁dutty	-13866
▁payed	-13867
▁quake	-13868
▁witty	-13869
▁jewish	-13870
▁napalm	-13871
▁proves	-13872
▁solace	-13873
▁amounts	-13874
▁jackets	-13875
▁mixture	-13876
▁seattle	-13877
▁whitney	-13878
▁michelle	-13879
▁relevant	-13880
iy	-13881
mal	-13882
doop	-13883
rich	-13884
▁dab	-13885
▁nad	-13886
▁nyc	-13887
eaway	-13888
▁gill	-13889
▁spag	-13890
▁jazzy	-13891
▁mixin	-13892
▁plots	-13893
▁skrrt	-13894
▁tings	-13895
▁aliens	-13896
▁cathed	-13897
▁coated	-13898
▁values	-13899
▁furnace	-13900
▁gaining	-13901
▁hookers	-13902
▁loading	-13903
▁shoutin	-13904
▁stamina	-13905
▁equality	-13906
▁gimmicks	-13907
▁interior	-13908
▁shocking	-13909
▁hollering	-13910
▁instantly	-13911
▁listeners	-13912
▁messenger	-13913
▁elementary	-13914
mith	-13915
▁xan	-13916
▁aali	-13917
▁hord	-13918
▁nino	-13919
▁tamp	-13920
▁bangs	-13921
▁diego	-13922
▁skank	-13923
sengers	-13924
▁advise	-13925
▁submit	-13926
▁tsunam	-13927
▁youths	-13928
▁portray	-13929
▁slappin	-13930
▁someway	-13931
▁clearing	-13932
▁embraced	-13933
▁lullabies	-13934
▁privilege	-13935
▁infatuated	-13936
flix	-13937
icin	-13938
▁ony	-13939
▁sob	-13940
ormed	-13941
▁lesb	-13942
▁faire	-13943
▁roles	-13944
▁wondr	-13945
▁detail	-13946
▁litter	-13947
▁resign	-13948
▁forfeit	-13949
▁directly	-13950
▁kangaroo	-13951
▁treatment	-13952
▁complexion	-13953
bay	-13954
mob	-13955
oko	-13956
omn	-13957
▁85	-13958
▁cess	-13959
▁enth	-13960
▁mint	-13961
▁troj	-13962
▁yess	-13963
▁cance	-13964
▁humor	-13965
▁regal	-13966
inating	-13967
▁chewin	-13968
▁fickle	-13969
▁teller	-13970
▁nearest	-13971
▁carefree	-13972
▁escalade	-13973
▁corrupted	-13974
▁newspaper	-13975
ibus	-13976
inin	-13977
omin	-13978
▁iii	-13979
rants	-13980
▁cram	-13981
▁plut	-13982
uggish	-13983
▁drags	-13984
▁moody	-13985
▁sauna	-13986
▁skips	-13987
▁swipe	-13988
▁ascend	-13989
▁chewed	-13990
▁curfew	-13991
▁muslim	-13992
▁nephew	-13993
▁reconc	-13994
▁uplift	-13995
▁burners	-13996
▁condemn	-13997
▁inspect	-13998
▁jacuzzi	-13999
▁nocturn	-14000
▁various	-14001
▁maserati	-14002
▁remained	-14003
▁arguments	-14004
▁imagining	-14005
jay	-14006
uba	-14007
wow	-14008
ulum	-14009
▁ker	-14010
llect	-14011
▁dolo	-14012
▁dupl	-14013
▁rake	-14014
▁refe	-14015
struck	-14016
▁advers	-14017
▁banker	-14018
▁sinned	-14019
▁melanin	-14020
▁mislead	-14021
▁feminine	-14022
▁playlist	-14023
▁trapping	-14024
▁personally	-14025
heh	-14026
nox	-14027
▁21st	-14028
▁arse	-14029
▁jill	-14030
▁smot	-14031
▁unic	-14032
▁gully	-14033
▁metro	-14034
▁tours	-14035
glasses	-14036
▁bubbly	-14037
▁disney	-14038
▁lauren	-14039
▁locker	-14040
▁muther	-14041
▁boulder	-14042
▁carcass	-14043
▁hatchet	-14044
▁netflix	-14045
▁panther	-14046
▁battling	-14047
▁freshest	-14048
▁investig	-14049
▁muhammad	-14050
▁realness	-14051
▁essential	-14052
▁transport	-14053
▁witnesses	-14054
▁inhibitions	-14055
▁quarterback	-14056
amy	-14057
tas	-14058
▁gad	-14059
ancin	-14060
istan	-14061
▁audi	-14062
▁calc	-14063
▁camo	-14064
▁whee	-14065
▁exhib	-14066
▁hymns	-14067
▁piled	-14068
▁doobie	-14069
▁sneeze	-14070
▁barroom	-14071
▁hateful	-14072
▁leisure	-14073
▁unfaith	-14074
▁instance	-14075
▁squeezin	-14076
▁bloodshed	-14077
▁primitive	-14078
▁recommend	-14079
▁congregation	-14080
duh	-14081
▁hex	-14082
▁hul	-14083
kirts	-14084
nacle	-14085
▁hose	-14086
▁publ	-14087
▁amuse	-14088
▁italy	-14089
▁bugged	-14090
▁aaliyah	-14091
▁asphalt	-14092
▁creates	-14093
▁touring	-14094
▁connects	-14095
▁talented	-14096
▁excellent	-14097
▁fulfilled	-14098
▁reflected	-14099
▁weathered	-14100
▁resolution	-14101
▁christopher	-14102
wop	-14103
▁yh	-14104
chea	-14105
hetti	-14106
▁adds	-14107
▁recy	-14108
keting	-14109
▁hyped	-14110
▁kodak	-14111
▁sabot	-14112
ography	-14113
▁marcus	-14114
▁midget	-14115
▁solved	-14116
▁submar	-14117
▁treatin	-14118
▁bleachers	-14119
aga	-14120
▁69	-14121
stru	-14122
▁dys	-14123
▁wes	-14124
there	-14125
▁dood	-14126
▁hark	-14127
▁impe	-14128
▁skee	-14129
▁woes	-14130
▁abort	-14131
▁arena	-14132
▁dazed	-14133
▁endor	-14134
▁hairy	-14135
▁incar	-14136
▁leggo	-14137
▁vines	-14138
▁yummy	-14139
▁fakers	-14140
▁sneaks	-14141
▁wallow	-14142
▁deserts	-14143
▁slammin	-14144
▁attempts	-14145
▁courtesy	-14146
▁embedded	-14147
▁postcard	-14148
▁roadside	-14149
▁shedding	-14150
▁venomous	-14151
▁rebellion	-14152
▁overflowing	-14153
uda	-14154
▁8,	-14155
▁ire	-14156
itals	-14157
train	-14158
▁rash	-14159
▁ryan	-14160
▁islam	-14161
▁nicer	-14162
▁retro	-14163
▁badman	-14164
▁lumber	-14165
▁meanin	-14166
▁stamps	-14167
▁stocks	-14168
▁cannons	-14169
▁stephen	-14170
▁beginnin	-14171
▁nickname	-14172
▁pedigree	-14173
▁smothered	-14174
▁transcend	-14175
16	-14176
ias	-14177
law	-14178
▁gt	-14179
bras	-14180
▁ori	-14181
▁peg	-14182
▁guin	-14183
▁jars	-14184
▁plac	-14185
▁shir	-14186
▁sill	-14187
▁tats	-14188
▁timid	-14189
▁candid	-14190
▁launch	-14191
▁rifles	-14192
▁stashed	-14193
▁wreckin	-14194
▁billions	-14195
▁enslaved	-14196
▁hallowed	-14197
▁kneeling	-14198
▁evergreen	-14199
▁uncomfortable	-14200
days	-14201
onia	-14202
fters	-14203
▁gras	-14204
▁budge	-14205
▁bombay	-14206
▁econom	-14207
▁enterp	-14208
▁grocer	-14209
▁slicker	-14210
▁threads	-14211
▁particip	-14212
game	-14213
knah	-14214
▁20'	-14215
▁keg	-14216
aaaaa	-14217
essim	-14218
onies	-14219
▁dads	-14220
oglyph	-14221
▁acrob	-14222
▁erect	-14223
▁sewed	-14224
▁boomin	-14225
▁boxing	-14226
▁cipher	-14227
▁gallon	-14228
▁muggin	-14229
▁shackled	-14230
▁shutting	-14231
▁explained	-14232
▁timbaland	-14233
▁unleashed	-14234
!'	-14235
:30	-14236
ela	-14237
gus	-14238
iat	-14239
mans	-14240
plan	-14241
▁gwan	-14242
▁loat	-14243
▁snows	-14244
aration	-14245
▁ronnie	-14246
▁testin	-14247
▁brushed	-14248
▁counsel	-14249
▁iceberg	-14250
▁realist	-14251
▁airwaves	-14252
▁incarcer	-14253
▁navigate	-14254
▁rattlesn	-14255
▁reflects	-14256
▁australia	-14257
▁pretender	-14258
▁staircase	-14259
jun	-14260
▁.38	-14261
▁7th	-14262
▁8th	-14263
▁htt	-14264
burgh	-14265
▁rept	-14266
▁angie	-14267
▁apost	-14268
▁caffe	-14269
▁lewis	-14270
▁macho	-14271
▁paste	-14272
▁reins	-14273
▁sorts	-14274
▁stump	-14275
▁amidst	-14276
▁banged	-14277
▁cincin	-14278
▁dipset	-14279
▁engulf	-14280
▁insomn	-14281
▁mariah	-14282
▁washes	-14283
▁pilgrim	-14284
▁pirates	-14285
▁rollers	-14286
▁servants	-14287
▁unafraid	-14288
▁blackbird	-14289
▁cadillacs	-14290
▁unfaithful	-14291
▁individuals	-14292
tor	-14293
▁bos	-14294
atile	-14295
aurus	-14296
imony	-14297
▁calv	-14298
▁jest	-14299
▁mache	-14300
▁techs	-14301
▁curled	-14302
▁dotted	-14303
▁pessim	-14304
▁trough	-14305
▁bounced	-14306
▁patrick	-14307
▁bluffing	-14308
▁fighters	-14309
▁chauffeur	-14310
▁spaghetti	-14311
▁progression	-14312
▁superficial	-14313
club	-14314
unes	-14315
ussy	-14316
▁nba	-14317
▁nir	-14318
going	-14319
▁deli	-14320
▁unbe	-14321
ential	-14322
▁blitz	-14323
▁obsol	-14324
▁sheen	-14325
hundred	-14326
▁bussin	-14327
▁calico	-14328
▁entity	-14329
▁helpin	-14330
▁plight	-14331
▁redman	-14332
▁scroll	-14333
▁daddies	-14334
▁inferno	-14335
▁prodigy	-14336
▁internal	-14337
▁wondrous	-14338
▁silhouettes	-14339
hob	-14340
mad	-14341
wick	-14342
dance	-14343
grass	-14344
▁gaye	-14345
▁onyx	-14346
▁whil	-14347
▁catal	-14348
▁parag	-14349
▁piles	-14350
▁resid	-14351
▁hotels	-14352
▁trunks	-14353
▁flashed	-14354
▁logical	-14355
▁sharpen	-14356
▁skating	-14357
▁discreet	-14358
▁homework	-14359
▁hieroglyph	-14360
▁tumbleweed	-14361
gum	-14362
▁27	-14363
cuse	-14364
quin	-14365
rina	-14366
ufact	-14367
▁diap	-14368
▁nave	-14369
bbling	-14370
illing	-14371
▁arsen	-14372
▁greek	-14373
▁layer	-14374
▁alight	-14375
▁scraps	-14376
▁slides	-14377
▁buckets	-14378
▁cartier	-14379
▁catfish	-14380
▁psyched	-14381
▁santana	-14382
▁blacktop	-14383
▁deserted	-14384
▁hardwood	-14385
▁predator	-14386
▁smallest	-14387
▁addictive	-14388
▁disturbed	-14389
▁heartbeats	-14390
▁sunglasses	-14391
▁victorious	-14392
bust	-14393
icho	-14394
▁360	-14395
▁omen	-14396
ussion	-14397
▁finan	-14398
▁toron	-14399
▁frisco	-14400
▁moanin	-14401
▁resume	-14402
▁glimmer	-14403
▁promote	-14404
▁sticker	-14405
▁strateg	-14406
▁happiest	-14407
▁kamikaze	-14408
▁maneuver	-14409
▁someones	-14410
▁somewhat	-14411
▁mistreated	-14412
ndy	-14413
oda	-14414
chair	-14415
▁cuba	-14416
▁scab	-14417
▁sync	-14418
▁batch	-14419
▁latch	-14420
▁noone	-14421
▁ville	-14422
▁miscon	-14423
▁rivals	-14424
▁sculpt	-14425
▁squash	-14426
▁beatles	-14427
▁crashes	-14428
▁jubilee	-14429
▁operate	-14430
▁pajamas	-14431
▁propane	-14432
▁clutching	-14433
▁oblivious	-14434
wha	-14435
vana	-14436
ifies	-14437
▁asyl	-14438
▁grid	-14439
adelph	-14440
▁jeeps	-14441
▁nelly	-14442
▁scout	-14443
▁biatch	-14444
▁razors	-14445
▁swears	-14446
▁uncont	-14447
▁bloodst	-14448
▁platter	-14449
▁annivers	-14450
▁annoying	-14451
▁forecast	-14452
▁manufact	-14453
▁spreadin	-14454
▁stairway	-14455
▁continued	-14456
▁fragments	-14457
▁futuristic	-14458
▁surprising	-14459
zan	-14460
rums	-14461
tell	-14462
undy	-14463
▁nub	-14464
▁monk	-14465
▁katie	-14466
▁pesos	-14467
▁whooo	-14468
▁bagged	-14469
▁bishop	-14470
▁medusa	-14471
▁policy	-14472
▁receip	-14473
▁ripper	-14474
▁slowin	-14475
▁wesson	-14476
▁yippie	-14477
▁zipper	-14478
▁beaming	-14479
▁cashing	-14480
▁crossin	-14481
▁ohhhhhh	-14482
▁rewrite	-14483
▁snappin	-14484
▁toronto	-14485
▁flossing	-14486
▁sprinkle	-14487
▁descending	-14488
▁repetition	-14489
▁revelations	-14490
opy	-14491
ardi	-14492
llie	-14493
tcha	-14494
locks	-14495
stack	-14496
▁nurs	-14497
▁armour	-14498
▁coyote	-14499
▁rodney	-14500
▁wobble	-14501
▁empathy	-14502
▁freddie	-14503
▁seeming	-14504
▁slingin	-14505
▁unicorn	-14506
▁obsolete	-14507
▁flickering	-14508
▁construction	-14509
ira	-14510
▁baw	-14511
▁nug	-14512
▁****	-14513
▁lest	-14514
school	-14515
▁aroma	-14516
▁atlas	-14517
▁caves	-14518
▁diner	-14519
▁hatch	-14520
▁perry	-14521
▁shang	-14522
▁alaska	-14523
▁killah	-14524
▁sexing	-14525
▁shifts	-14526
▁automob	-14527
▁vehicle	-14528
▁splendid	-14529
▁disciples	-14530
▁probation	-14531
________________	-14532
fre	-14533
lig	-14534
oky	-14535
tah	-14536
dale	-14537
urin	-14538
▁eee	-14539
▁ehh	-14540
▁omo	-14541
▁eliz	-14542
▁mull	-14543
▁penn	-14544
anging	-14545
echoes	-14546
▁golly	-14547
▁melon	-14548
▁tenth	-14549
▁athlet	-14550
▁bendin	-14551
▁berserk	-14552
▁jacking	-14553
▁richest	-14554
▁russell	-14555
scratching	-14556
▁faithless	-14557
▁punchlines	-14558
▁devastation	-14559
▁mol	-14560
▁nay	-14561
▁glee	-14562
▁fluff	-14563
▁ooohh	-14564
▁ranks	-14565
▁tweed	-14566
section	-14567
▁bumble	-14568
▁cussin	-14569
▁lakers	-14570
▁minnes	-14571
▁sunken	-14572
▁tyrant	-14573
▁endings	-14574
▁awakened	-14575
▁dominoes	-14576
▁praising	-14577
▁swishers	-14578
▁undertow	-14579
▁bottomless	-14580
▁tribulations	-14581
▁~	-14582
▁48	-14583
cold	-14584
fied	-14585
make	-14586
nati	-14587
▁lol	-14588
▁shi	-14589
actic	-14590
brush	-14591
▁asia	-14592
▁subs	-14593
▁vend	-14594
▁anton	-14595
▁geese	-14596
▁looka	-14597
▁puffy	-14598
▁repay	-14599
▁flawed	-14600
▁mature	-14601
▁mumble	-14602
▁scores	-14603
▁spouse	-14604
▁jackpot	-14605
▁teachin	-14606
▁provided	-14607
▁splatter	-14608
▁encourage	-14609
▁godfather	-14610
▁homegrown	-14611
▁millimeter	-14612
▁undefeated	-14613
▁vulnerable	-14614
▁replacement	-14615
▁determination	-14616
▁instrumentals	-14617
45	-14618
aj	-14619
eli	-14620
▁alche	-14621
▁canad	-14622
▁preva	-14623
▁reass	-14624
▁refer	-14625
▁ceilin	-14626
▁insult	-14627
▁sovere	-14628
▁nirvana	-14629
▁testament	-14630
▁granddaddy	-14631
dda	-14632
dogs	-14633
▁syl	-14634
comin	-14635
ports	-14636
stool	-14637
▁axis	-14638
▁bung	-14639
▁didd	-14640
▁memo	-14641
lining	-14642
▁gutta	-14643
amiliar	-14644
▁burial	-14645
▁fittin	-14646
▁hassle	-14647
▁splits	-14648
▁stylin	-14649
▁toothp	-14650
▁uphill	-14651
▁bedside	-14652
▁encount	-14653
▁hippies	-14654
▁imitate	-14655
▁organic	-14656
▁quitter	-14657
▁chambers	-14658
▁previous	-14659
▁reserved	-14660
▁nocturnal	-14661
▁policeman	-14662
▁snitching	-14663
kay	-14664
▁8-	-14665
▁24'	-14666
▁mul	-14667
cence	-14668
▁hymn	-14669
▁whim	-14670
▁appar	-14671
▁dilla	-14672
▁excel	-14673
▁auntie	-14674
▁cobain	-14675
▁gemini	-14676
▁glowin	-14677
▁jagged	-14678
▁microw	-14679
▁calvary	-14680
▁gunshot	-14681
▁hollows	-14682
▁martian	-14683
▁columbus	-14684
▁marshall	-14685
▁stardust	-14686
▁enchanted	-14687
▁complacent	-14688
▁complicate	-14689
▁department	-14690
▁phenomenon	-14691
▁differences	-14692
▁possessions	-14693
pain	-14694
▁tux	-14695
▁moet	-14696
▁valu	-14697
▁yoga	-14698
▁1-2-3	-14699
▁canna	-14700
▁mosqu	-14701
▁pagan	-14702
▁silic	-14703
▁swoll	-14704
▁backin	-14705
▁giggle	-14706
▁carving	-14707
▁dentist	-14708
▁handing	-14709
▁misfort	-14710
▁rescued	-14711
▁talents	-14712
▁bachelor	-14713
▁entering	-14714
▁handling	-14715
▁priority	-14716
▁specific	-14717
▁thanking	-14718
▁loneliest	-14719
▁struggled	-14720
▁microphones	-14721
▁7,	-14722
▁il	-14723
roof	-14724
▁meh	-14725
▁yor	-14726
ernal	-14727
▁kurt	-14728
▁mosc	-14729
▁twos	-14730
▁yolo	-14731
dollar	-14732
filled	-14733
▁linda	-14734
▁sleet	-14735
▁twists	-14736
▁cutlass	-14737
▁dissect	-14738
▁holster	-14739
▁mascara	-14740
▁smokers	-14741
▁tumblin	-14742
▁upgrade	-14743
▁affected	-14744
▁allergic	-14745
▁showtime	-14746
▁symptoms	-14747
▁terminal	-14748
▁recollect	-14749
▁residence	-14750
▁suspicion	-14751
▁adolescent	-14752
▁cincinnati	-14753
▁dictionary	-14754
▁deliverance	-14755
ae	-14756
cam	-14757
agin	-14758
arts	-14759
wolf	-14760
▁tad	-14761
▁1000	-14762
▁tefl	-14763
americ	-14764
▁morph	-14765
▁spies	-14766
▁drowns	-14767
▁ferris	-14768
▁finess	-14769
▁fussin	-14770
▁misled	-14771
▁payday	-14772
▁saggin	-14773
▁blacker	-14774
▁library	-14775
▁mindset	-14776
▁sandals	-14777
▁truckin	-14778
▁splendor	-14779
▁forgettin	-14780
▁highlight	-14781
▁imitation	-14782
▁faithfully	-14783
▁homecoming	-14784
▁infatuation	-14785
isk	-14786
▁oww	-14787
crast	-14788
ogram	-14789
▁cork	-14790
▁grav	-14791
▁comat	-14792
▁osama	-14793
▁scold	-14794
▁shrug	-14795
▁taker	-14796
▁tints	-14797
looking	-14798
ouraged	-14799
▁bathed	-14800
▁dining	-14801
▁idiots	-14802
▁porter	-14803
▁waylon	-14804
▁bothers	-14805
▁channels	-14806
▁motivate	-14807
▁neverthe	-14808
▁arrogance	-14809
▁groceries	-14810
▁scratchin	-14811
▁motorcycle	-14812
▁unfamiliar	-14813
▁31	-14814
rine	-14815
▁jin	-14816
otics	-14817
▁coug	-14818
▁fero	-14819
▁gull	-14820
▁kinky	-14821
▁ninth	-14822
▁pissy	-14823
▁reapp	-14824
▁spong	-14825
▁taboo	-14826
▁accust	-14827
▁bolder	-14828
▁nelson	-14829
▁breaths	-14830
▁forgets	-14831
▁hipster	-14832
▁jericho	-14833
▁stinkin	-14834
▁attacked	-14835
▁hideaway	-14836
▁stocking	-14837
▁everyones	-14838
▁pronounce	-14839
▁quickness	-14840
▁consistent	-14841
▁statements	-14842
▁watermelon	-14843
▁nevertheless	-14844
def	-14845
zay	-14846
▁4-5	-14847
▁ses	-14848
aders	-14849
▁100%	-14850
▁lama	-14851
▁aglow	-14852
▁binds	-14853
▁cindy	-14854
▁fadin	-14855
▁hoops	-14856
▁asylum	-14857
▁barney	-14858
▁disper	-14859
▁spiders	-14860
▁statues	-14861
▁highness	-14862
▁outskirts	-14863
▁fingernails	-14864
▁cb	-14865
▁dw	-14866
lier	-14867
▁een	-14868
▁sel	-14869
beams	-14870
▁itty	-14871
▁mango	-14872
▁polka	-14873
▁reset	-14874
▁stagn	-14875
▁clicks	-14876
▁cuffed	-14877
▁helmet	-14878
▁whilst	-14879
function	-14880
▁marchin	-14881
▁outlast	-14882
▁stunned	-14883
scratched	-14884
▁caffeine	-14885
▁homeward	-14886
▁unlocked	-14887
▁elephants	-14888
▁selection	-14889
▁tl	-14890
orms	-14891
ignon	-14892
shift	-14893
▁hyde	-14894
▁meen	-14895
▁prow	-14896
▁rung	-14897
▁slop	-14898
haired	-14899
inting	-14900
▁belts	-14901
▁chore	-14902
▁fruity	-14903
▁frying	-14904
▁intrig	-14905
▁paddle	-14906
▁plaque	-14907
▁escapes	-14908
▁sessions	-14909
▁subtract	-14910
▁northside	-14911
▁underworld	-14912
▁neighbourhood	-14913
▁fm	-14914
▁fizz	-14915
▁jedi	-14916
▁kale	-14917
▁ranc	-14918
▁rosy	-14919
▁jamie	-14920
▁riots	-14921
▁campus	-14922
▁gabrie	-14923
▁molest	-14924
▁seekin	-14925
▁collars	-14926
▁condoms	-14927
▁prisons	-14928
▁verdict	-14929
▁virgins	-14930
▁wishful	-14931
▁interven	-14932
▁prostitute	-14933
▁contradiction	-14934
augh	-14935
etta	-14936
kiss	-14937
bones	-14938
▁iris	-14939
ounced	-14940
▁assum	-14941
▁cajun	-14942
▁disar	-14943
▁impul	-14944
▁relay	-14945
▁villa	-14946
▁facade	-14947
▁goblin	-14948
▁meetin	-14949
▁meteor	-14950
▁picnic	-14951
▁robots	-14952
▁rubbed	-14953
▁teasin	-14954
▁zoning	-14955
▁brothas	-14956
▁farmers	-14957
▁fitness	-14958
▁gasping	-14959
▁plugged	-14960
[...]
